{
  "version": "1.0",
  "truncation": null,
  "padding": null,
  "added_tokens": [
    {
      "id": 0,
      "content": "<|endoftext|>",
      "single_word": false,
      "lstrip": false,
      "rstrip": false,
      "normalized": false,
      "special": true
    }
  ],
  "normalizer": null,
  "pre_tokenizer": {
    "type": "ByteLevel",
    "add_prefix_space": false,
    "trim_offsets": true,
    "use_regex": true
  },
  "post_processor": {
    "type": "ByteLevel",
    "add_prefix_space": true,
    "trim_offsets": false,
    "use_regex": true
  },
  "decoder": {
    "type": "ByteLevel",
    "add_prefix_space": true,
    "trim_offsets": true,
    "use_regex": true
  },
  "model": {
    "type": "BPE",
    "dropout": null,
    "unk_token": null,
    "continuing_subword_prefix": null,
    "end_of_word_suffix": null,
    "fuse_unk": false,
    "byte_fallback": false,
    "ignore_merges": false,
    "vocab": {
      "<|endoftext|>": 0,
      "\"": 1,
      "$": 2,
      "%": 3,
      "'": 4,
      "(": 5,
      ")": 6,
      ",": 7,
      "-": 8,
      ".": 9,
      "/": 10,
      "0": 11,
      "1": 12,
      "2": 13,
      "3": 14,
      "4": 15,
      "5": 16,
      "6": 17,
      "7": 18,
      "8": 19,
      "9": 20,
      ":": 21,
      "?": 22,
      "A": 23,
      "B": 24,
      "C": 25,
      "D": 26,
      "E": 27,
      "F": 28,
      "G": 29,
      "H": 30,
      "I": 31,
      "J": 32,
      "K": 33,
      "L": 34,
      "M": 35,
      "N": 36,
      "O": 37,
      "P": 38,
      "Q": 39,
      "R": 40,
      "S": 41,
      "T": 42,
      "U": 43,
      "V": 44,
      "W": 45,
      "X": 46,
      "Y": 47,
      "[": 48,
      "]": 49,
      "a": 50,
      "b": 51,
      "c": 52,
      "d": 53,
      "e": 54,
      "f": 55,
      "g": 56,
      "h": 57,
      "i": 58,
      "j": 59,
      "k": 60,
      "l": 61,
      "m": 62,
      "n": 63,
      "o": 64,
      "p": 65,
      "q": 66,
      "r": 67,
      "s": 68,
      "t": 69,
      "u": 70,
      "v": 71,
      "w": 72,
      "x": 73,
      "y": 74,
      "z": 75,
      "£": 76,
      "¦": 77,
      "Â": 78,
      "â": 79,
      "Ċ": 80,
      "č": 81,
      "Ġ": 82,
      "Ģ": 83,
      "ĵ": 84,
      "aa": 85,
      "ay": 86,
      "ka": 87,
      "oo": 88,
      "da": 89,
      "ee": 90,
      "ar": 91,
      "in": 92,
      "Ġs": 93,
      "la": 94,
      "ha": 95,
      "ii": 96,
      "Ġw": 97,
      "uu": 98,
      "Ġd": 99,
      "Ġa": 100,
      "Ġay": 101,
      "Ġm": 102,
      "aan": 103,
      "Ġka": 104,
      "Ġk": 105,
      "an": 106,
      "ax": 107,
      "čĊ": 108,
      "Ġla": 109,
      "Ġb": 110,
      "Ġin": 111,
      "iy": 112,
      "Ġah": 113,
      "ta": 114,
      "Ġoo": 115,
      "ad": 116,
      "Ġku": 117,
      "ga": 118,
      "Ġu": 119,
      "ey": 120,
      "ada": 121,
      "ir": 122,
      "Ġwax": 123,
      ".\"": 124,
      "aal": 125,
      "Ġt": 126,
      "Ġuu": 127,
      "is": 128,
      "Ġx": 129,
      "aad": 130,
      "gu": 131,
      "Ġq": 132,
      "Ġee": 133,
      "Ġda": 134,
      "id": 135,
      "Ġc": 136,
      "Ġy": 137,
      "kii": 138,
      "ĠM": 139,
      "si": 140,
      "Ġayaa": 141,
      "Ġh": 142,
      "Ġsh": 143,
      "Ġl": 144,
      "il": 145,
      "Ġj": 146,
      "iyo": 147,
      "na": 148,
      "aab": 149,
      "Ġdha": 150,
      "Ġha": 151,
      "ab": 152,
      "al": 153,
      "een": 154,
      "Ġiyo": 155,
      "el": 156,
      "or": 157,
      "ĠS": 158,
      "Ġsi": 159,
      "Ġshee": 160,
      "Ġdh": 161,
      "Ġmar": 162,
      "\"\"": 163,
      "aha": 164,
      "Ġis": 165,
      "eyn": 166,
      "lka": 167,
      "Ġaan": 168,
      "aam": 169,
      "gay": 170,
      "sa": 171,
      "san": 172,
      "hay": 173,
      "tay": 174,
      "Ġf": 175,
      "iin": 176,
      "ur": 177,
      "aar": 178,
      "Ġma": 179,
      "aas": 180,
      "to": 181,
      "Ġg": 182,
      "Ġloo": 183,
      "im": 184,
      "dd": 185,
      "ib": 186,
      "Ġr": 187,
      "oon": 188,
      "Ġn": 189,
      "Ġta": 190,
      "adan": 191,
      "Ġlagu": 192,
      "dda": 193,
      "er": 194,
      "eey": 195,
      "adda": 196,
      "Ġwaxay": 197,
      "Ġsoo": 198,
      "Ġjir": 199,
      "aasi": 200,
      "ood": 201,
      "Ġmid": 202,
      "Ġbadan": 203,
      "Ġxir": 204,
      "Ġhor": 205,
      "Wax": 206,
      "ba": 207,
      "ig": 208,
      "le": 209,
      "kan": 210,
      "ux": 211,
      "ĠA": 212,
      "Ġsheegay": 213,
      "tii": 214,
      "ayn": 215,
      "arr": 216,
      "Ġugu": 217,
      "Ġmarkii": 218,
      "maal": 219,
      "ob": 220,
      "sh": 221,
      "uur": 222,
      "Ġwaxaa": 223,
      "Ġil": 224,
      "Ġ\"\"": 225,
      "eer": 226,
      "Ġwaa": 227,
      "ĠMar": 228,
      "uxuu": 229,
      "it": 230,
      "ida": 231,
      "lo": 232,
      "ma": 233,
      "aala": 234,
      "Ġkar": 235,
      "Ġqo": 236,
      "mb": 237,
      "oc": 238,
      "ĠG": 239,
      "oomaal": 240,
      "eys": 241,
      "ow": 242,
      "Ġaad": 243,
      "arc": 244,
      "Ġsan": 245,
      "aana": 246,
      "Ġkale": 247,
      "Ġjoo": 248,
      "am": 249,
      "og": 250,
      "ug": 251,
      "ays": 252,
      "Ġbar": 253,
      "ku": 254,
      "ĠD": 255,
      "Ġsoc": 256,
      "Ġbil": 257,
      "ĠSoomaal": 258,
      "kanka": 259,
      "ag": 260,
      "aq": 261,
      "es": 262,
      "ex": 263,
      "iga": 264,
      "se": 265,
      "us": 266,
      "ĠI": 267,
      "ĠT": 268,
      "Ġar": 269,
      "iir": 270,
      "uuq": 271,
      "Ġdoon": 272,
      "Ġlaga": 273,
      "iri": 274,
      "aalka": 275,
      "Ġnoo": 276,
      "ul": 277,
      "un": 278,
      "weyn": 279,
      "Ġ(": 280,
      "Ġ2": 281,
      "ĠC": 282,
      "Ġwuxuu": 283,
      "Ġdib": 284,
      "iya": 285,
      "Ġdamb": 286,
      "ea": 287,
      "ic": 288,
      "ix": 289,
      "ll": 290,
      "mo": 291,
      "yada": 292,
      "Ġ1": 293,
      "eed": 294,
      "arkii": 295,
      "Ġsha": 296,
      "hat": 297,
      "Ġwar": 298,
      "aanka": 299,
      "iyay": 300,
      "Ġtar": 301,
      "Ġdar": 302,
      "siga": 303,
      "eeyay": 304,
      "obo": 305,
      "Ġqof": 306,
      "hii": 307,
      "kay": 308,
      "lay": 309,
      "sad": 310,
      "uq": 311,
      "ĠB": 312,
      "aada": 313,
      "ayo": 314,
      "ooy": 315,
      "Ġkuw": 316,
      "Ġqab": 317,
      "Ġdad": 318,
      "Ġdalka": 319,
      "ĠMarey": 320,
      "Ġ20": 321,
      "haa": 322,
      "ia": 323,
      "ud": 324,
      "ĠK": 325,
      "aac": 326,
      "Ġsid": 327,
      "Ġsam": 328,
      "Ġdaa": 329,
      "Ġayuu": 330,
      "Ġxar": 331,
      "ĠMareykanka": 332,
      "ahay": 333,
      "eh": 334,
      "hiin": 335,
      "lk": 336,
      "sha": 337,
      "Ġga": 338,
      "Ġgu": 339,
      "Ġna": 340,
      "aaf": 341,
      "aag": 342,
      "ayay": 343,
      "eel": 344,
      "iis": 345,
      "Ġinay": 346,
      "add": 347,
      "Ġwaxaana": 348,
      "Ġyiri": 349,
      "Ġsharc": 350,
      "Ġhadda": 351,
      "Ġsheeg": 352,
      "ĠSoomaalida": 353,
      "do": 354,
      "ij": 355,
      "jin": 356,
      "kh": 357,
      "nad": 358,
      "rea": 359,
      "ub": 360,
      "xda": 361,
      "ooda": 362,
      "eeda": 363,
      "Ġsii": 364,
      "Ġwada": 365,
      "Ġwaxa": 366,
      "Ġyee": 367,
      "Ġdhaq": 368,
      "Ġsida": 369,
      "iinta": 370,
      "imaad": 371,
      "Ġxiriir": 372,
      "Ġhore": 373,
      "Ġjoog": 374,
      "aqaan": 375,
      "''": 376,
      "ac": 377,
      "aga": 378,
      "day": 379,
      "maha": 380,
      "no": 381,
      "sta": 382,
      "taa": 383,
      "ter": 384,
      "xii": 385,
      "ys": 386,
      "ĠE": 387,
      "ĠH": 388,
      "ĠR": 389,
      "Ġiy": 390,
      "aya": 391,
      "oob": 392,
      "eeg": 393,
      "ladda": 394,
      "Ġad": 395,
      "Ġaysan": 396,
      "Ġmu": 397,
      "Ġbaa": 398,
      "Ġcarr": 399,
      "Ġdhac": 400,
      "Ġsheekay": 401,
      "ahad": 402,
      "Ġmag": 403,
      "Ġno": 404,
      "Ġsocd": 405,
      "hatar": 406,
      "obot": 407,
      "Ġcarruur": 408,
      "Markii": 409,
      "af": 410,
      "ho": 411,
      "ihiin": 412,
      "mm": 413,
      "soo": 414,
      "ĠL": 415,
      "Ġog": 416,
      "arka": 417,
      "Ġwii": 418,
      "Ġam": 419,
      "Ġmaal": 420,
      "Ġkan": 421,
      "Ġkhatar": 422,
      "Ġlahaa": 423,
      "Ġbal": 424,
      ".\"\"\"": 425,
      "Ġtir": 426,
      "Ġeed": 427,
      "Ġgaar": 428,
      "Ġloogu": 429,
      "Ġxiray": 430,
      "Ġilaa": 431,
      "aalada": 432,
      "ooyin": 433,
      "Ġsharci": 434,
      "aw": 435,
      "dha": 436,
      "dib": 437,
      "edd": 438,
      "kaa": 439,
      "ol": 440,
      "rit": 441,
      "tan": 442,
      "um": 443,
      "ĠJ": 444,
      "ĠU": 445,
      "ayaa": 446,
      "ayaan": 447,
      "Ġsadd": 448,
      "Ġweyn": 449,
      "Ġkala": 450,
      "Ġkadib": 451,
      "Ġkoo": 452,
      "Ġinuu": 453,
      "Ġinaad": 454,
      "aalla": 455,
      "Ġqaad": 456,
      "Ġyahay": 457,
      "Ġyihiin": 458,
      "ĠMin": 459,
      "ilm": 460,
      "Ġdhan": 461,
      "Ġhalka": 462,
      "eli": 463,
      "aamij": 464,
      "Ġfar": 465,
      "Ġrobot": 466,
      "eeyo": 467,
      "sho": 468,
      "Ġshaq": 469,
      "mmaan": 470,
      "Ġkans": 471,
      "ritrea": 472,
      "Ġsaddex": 473,
      "00": 474,
      "ah": 475,
      "as": 476,
      "bo": 477,
      "dh": 478,
      "dis": 479,
      "em": 480,
      "if": 481,
      "nka": 482,
      "naamij": 483,
      "on": 484,
      "uk": 485,
      "ĠO": 486,
      "ĠQ": 487,
      "ĠW": 488,
      "kad": 489,
      "ary": 490,
      "inta": 491,
      "han": 492,
      "iida": 493,
      "Ġdug": 494,
      "Ġab": 495,
      "Ġaf": 496,
      "Ġmuuq": 497,
      "Ġmeel": 498,
      "Ġinta": 499,
      "adoo": 500,
      "Ġwaxy": 501,
      "Ġdaw": 502,
      "Ġyar": 503,
      "sig": 504,
      "Ġleh": 505,
      "ill": 506,
      "ĠSh": 507,
      "Ġmarka": 508,
      "Ġisla": 509,
      "imid": 510,
      "Ġtall": 511,
      "Waxay": 512,
      "Ġilaal": 513,
      "owladda": 514,
      "Ġsanad": 515,
      "Ġbarnaamij": 516,
      "Ġbilaab": 517,
      "Ġbilood": 518,
      "essi": 519,
      "Ġtarxii": 520,
      "shada": 521,
      "Ġgur": 522,
      "ĠEritrea": 523,
      "Ġmagaalada": 524,
      "Ġnoq": 525,
      "Ġsocdaalka": 526,
      "Ġbalse": 527,
      "eddel": 528,
      "kaaga": 529,
      "aj": 530,
      "baab": 531,
      "can": 532,
      "ed": 533,
      "eg": 534,
      "en": 535,
      "ik": 536,
      "lee": 537,
      "mid": 538,
      "nd": 539,
      "ona": 540,
      "tu": 541,
      "aaq": 542,
      "ayd": 543,
      "oos": 544,
      "Ġsu": 545,
      "Ġsab": 546,
      "Ġwal": 547,
      "Ġweli": 548,
      "Ġama": 549,
      "Ġayay": 550,
      "Ġmax": 551,
      "Ġmada": 552,
      "Ġban": 553,
      "iyada": 554,
      "Ġahaa": 555,
      "Ġula": 556,
      "Ġtaasi": 557,
      "Ġciida": 558,
      "Ġyimid": 559,
      "kiisa": 560,
      "ĠMuq": 561,
      "ĠMahad": 562,
      "Ġdhammaan": 563,
      "Ġhadd": 564,
      "absi": 565,
      "Ġdhii": 566,
      "Ġaanan": 567,
      "aama": 568,
      "Ġlooga": 569,
      "Ġtahay": 570,
      "ĠGary": 571,
      "eyso": 572,
      "Ġsano": 573,
      "Ġnool": 574,
      "Ġdadka": 575,
      "Ġ202": 576,
      "Ġdhaqan": 577,
      "Ġiyadoo": 578,
      "Ġadeeg": 579,
      "Ġsheekaysiga": 580,
      "Ġcarruurta": 581,
      "ĠMinn": 582,
      "disho": 583,
      "Ġtallaab": 584,
      "ĠMuqdisho": 585,
      "ĠGaryaqaan": 586,
      "BC": 587,
      "bal": 588,
      "har": 589,
      "kaana": 590,
      "naa": 591,
      "od": 592,
      "qbal": 593,
      "rum": 594,
      "teen": 595,
      "âĢ": 596,
      "Ġ-": 597,
      "ĠF": 598,
      "aysa": 599,
      "ine": 600,
      "inda": 601,
      "Ġsaar": 602,
      "lad": 603,
      "lan": 604,
      "iisa": 605,
      "Ġwad": 606,
      "Ġduu": 607,
      "Ġal": 608,
      "Ġmaad": 609,
      "Ġmaam": 610,
      "Ġkamid": 611,
      "Ġkor": 612,
      "Ġbax": 613,
      "Ġbeddel": 614,
      "Ġahaan": 615,
      "Ġkul": 616,
      "Ġuga": 617,
      "aallo": 618,
      "Ġtaas": 619,
      "isay": 620,
      "ista": 621,
      "Ġxad": 622,
      "Ġxill": 623,
      "Ġqor": 624,
      "Ġqaar": 625,
      "ĠMessi": 626,
      "Ġlaab": 627,
      "Ġhal": 628,
      "Ġhada": 629,
      "Ġhalk": 630,
      "alka": 631,
      "Ġdhig": 632,
      "Ġdhow": 633,
      "Ġaanay": 634,
      "Ġmas": 635,
      "ddo": 636,
      "Ġjiray": 637,
      "Waxaa": 638,
      "tiib": 639,
      "shee": 640,
      "ĠGinda": 641,
      "ayso": 642,
      "Ġsocda": 643,
      "ĠSoomaaliya": 644,
      "ĠTrum": 645,
      "Ġark": 646,
      "Ġarag": 647,
      "Ġtartiib": 648,
      "Ġqofka": 649,
      "sado": 650,
      "ĠBBC": 651,
      "Ġsidoo": 652,
      "Ġxarun": 653,
      "nadkii": 654,
      "Ġwiilka": 655,
      "Ġmaalin": 656,
      "Ġwaxyaab": 657,
      "Ġsabab": 658,
      "Ġhaddii": 659,
      "ĠTrump": 660,
      ",\"\"": 661,
      "CE": 662,
      "Hadda": 663,
      "ai": 664,
      "bad": 665,
      "bur": 666,
      "bit": 667,
      "bix": 668,
      "duu": 669,
      "foon": 670,
      "gga": 671,
      "hi": 672,
      "ihii": 673,
      "kiin": 674,
      "keed": 675,
      "may": 676,
      "mka": 677,
      "mar": 678,
      "ota": 679,
      "rr": 680,
      "shay": 681,
      "tir": 682,
      "tic": 683,
      "ya": 684,
      "yay": 685,
      "Ġi": 686,
      "Ġarr": 687,
      "ĠâĢ": 688,
      "aah": 689,
      "aato": 690,
      "aakiin": 691,
      "kam": 692,
      "eekh": 693,
      "arta": 694,
      "int": 695,
      "Ġsar": 696,
      "Ġsal": 697,
      "Ġsaam": 698,
      "uujin": 699,
      "Ġaw": 700,
      "Ġmuujin": 701,
      "ana": 702,
      "ani": 703,
      "Ġbuk": 704,
      "Ġinaan": 705,
      "iyaar": 706,
      "Ġahayd": 707,
      "gac": 708,
      "Ġtan": 709,
      "Ġtiri": 710,
      "Ġtaag": 711,
      "Ġuusan": 712,
      "Ġqur": 713,
      "Ġqaada": 714,
      "Ġeeg": 715,
      "Ġcaaf": 716,
      "Ġcabsi": 717,
      "Ġcod": 718,
      "Ġhel": 719,
      "Ġlaakiin": 720,
      "Ġjaw": 721,
      "Ġdhax": 722,
      "ele": 723,
      "ell": 724,
      "ĠSt": 725,
      "ĠSha": 726,
      "Ġdhex": 727,
      "Ġmarkaana": 728,
      "Ġisag": 729,
      "Ġfur": 730,
      "Ġfarr": 731,
      "Ġmagac": 732,
      "aasha": 733,
      "Ġgar": 734,
      "imo": 735,
      "Ġraac": 736,
      "Ġjirto": 737,
      "Waxa": 738,
      "Waxaan": 739,
      "ĠAl": 740,
      "tiisa": 741,
      "aaladda": 742,
      "Ġkarin": 743,
      "Ġkaraan": 744,
      "Ġqoys": 745,
      "eysay": 746,
      "Ġjoojin": 747,
      "aysaa": 748,
      "esota": 749,
      "ĠICE": 750,
      "Ġnoola": 751,
      "Ġdambayn": 752,
      "Ġ19": 753,
      "saday": 754,
      "Ġkuwa": 755,
      "Ġkuwaas": 756,
      "Ġ201": 757,
      "Ġdaaw": 758,
      "Ġdaaweyn": 759,
      "Ġsheegtay": 760,
      "Ġyeeshee": 761,
      "Ġxiriira": 762,
      "Ġmuddo": 763,
      "Ġamn": 764,
      "Ġeedey": 765,
      "ĠUK": 766,
      "Ġkooxda": 767,
      "ilmaam": 768,
      "Ġfarii": 769,
      "Ġkansarka": 770,
      "ĠQur": 771,
      "Ġafduu": 772,
      "Ġsugay": 773,
      "Ġdhiigga": 774,
      "Ġduull": 775,
      "Ġhalkaasi": 776,
      "Ġwaxyaabaha": 777,
      "bitaalka": 778,
      "ĠâĢĵ": 779,
      "Ġbukaan": 780,
      "Ġcaafimaad": 781,
      "Ġjawaab": 782,
      "Ġafduub": 783,
      "Ka": 784,
      "Mahad": 785,
      "Sh": 786,
      "To": 787,
      "Wuxuu": 788,
      "ap": 789,
      "bada": 790,
      "dii": 791,
      "daama": 792,
      "et": 793,
      "ew": 794,
      "emb": 795,
      "gel": 796,
      "hu": 797,
      "hor": 798,
      "ika": 799,
      "igay": 800,
      "jab": 801,
      "laam": 802,
      "nug": 803,
      "njab": 804,
      "pol": 805,
      "rig": 806,
      "slaam": 807,
      "xweyn": 808,
      "yo": 809,
      "Ġ'": 810,
      "ĠP": 811,
      "aatay": 812,
      "darr": 813,
      "inayo": 814,
      "Ġsaf": 815,
      "lada": 816,
      "laha": 817,
      "Ġwaan": 818,
      "Ġdiinta": 819,
      "Ġdif": 820,
      "Ġdowladda": 821,
      "Ġmal": 822,
      "Ġkasta": 823,
      "Ġkahor": 824,
      "Ġlac": 825,
      "Ġlaba": 826,
      "Ġbuu": 827,
      "Ġbur": 828,
      "Ġbix": 829,
      "Ġintaa": 830,
      "iyey": 831,
      "Ġahayn": 832,
      "tag": 833,
      "galay": 834,
      "eysan": 835,
      "aalo": 836,
      "aalid": 837,
      "Ġtax": 838,
      "Ġtob": 839,
      "Ġtaallo": 840,
      "Ġtele": 841,
      "Ġtilmaam": 842,
      "ishii": 843,
      "Ġxab": 844,
      "Ġxaaladda": 845,
      "Ġdac": 846,
      "idhi": 847,
      "Ġcus": 848,
      "Ġcul": 849,
      "Ġcilm": 850,
      "Ġyaab": 851,
      "Ġyimaad": 852,
      "Ġyaqaan": 853,
      "Ġyaalla": 854,
      "Ġhub": 855,
      "Ġhoos": 856,
      "Ġshir": 857,
      "naha": 858,
      "aaban": 859,
      "aabada": 860,
      "Ġdhab": 861,
      "Ġdhaw": 862,
      "Ġdhashay": 863,
      "Ġhanjab": 864,
      "aba": 865,
      "eliyay": 866,
      "Ġisku": 867,
      "Ġisbitaalka": 868,
      "Ġfud": 869,
      "Ġmac": 870,
      "Ġgobo": 871,
      "ddu": 872,
      "Ġraj": 873,
      "oonka": 874,
      "Ġtalee": 875,
      "Ġjirka": 876,
      "oodu": 877,
      "Ġhortag": 878,
      "ĠAd": 879,
      "ĠAf": 880,
      "Ġwaaxda": 881,
      "Ġkaro": 882,
      "Ġkartaa": 883,
      "eysaa": 884,
      "arcia": 885,
      "ĠIslaam": 886,
      "ĠTik": 887,
      "Ġdoono": 888,
      "Ġnoocan": 889,
      "ĠChar": 890,
      "Ġwuxuuna": 891,
      "Ġdambe": 892,
      "eapol": 893,
      "Ġdaree": 894,
      "uquuq": 895,
      "Ġqaban": 896,
      "Ġxaru": 897,
      "Ġgalay": 898,
      "aafur": 899,
      "Ġhaddana": 900,
      "Ġsheegeen": 901,
      "Ġjoogo": 902,
      "acter": 903,
      "Ġdhacay": 904,
      "Ġogaan": 905,
      "Ġkoox": 906,
      "Ġqaadi": 907,
      "Ġkansar": 908,
      "ĠOr": 909,
      "Ġabuur": 910,
      "Ġilaaliyo": 911,
      "Ġsanadkii": 912,
      "Ġbarnaamijka": 913,
      "Ġnoqday": 914,
      "onal": 915,
      "aaqa": 916,
      "Ġbandh": 917,
      "Ġciidanka": 918,
      "ĠMinneapol": 919,
      "Ġalbaab": 920,
      "Ġhadal": 921,
      "Ġdhowr": 922,
      "Ġmasaafur": 923,
      "Ġarko": 924,
      "Ġxarunta": 925,
      "Ġsaameyn": 926,
      "Ġawood": 927,
      "Ġisagoo": 928,
      "Ġraaciyay": 929,
      "Ġamni": 930,
      "nugyada": 931,
      "xweyne": 932,
      "Ġdifaac": 933,
      "Ġburbur": 934,
      "Ġtelefoon": 935,
      "Ġcusub": 936,
      "Ġfudud": 937,
      "Ġgobolka": 938,
      "ĠCharacter": 939,
      "ĠMinneapolis": 940,
      "),": 941,
      ".''": 942,
      "Da": 943,
      "Dha": 944,
      "GP": 945,
      "Garcia": 946,
      "Ha": 947,
      "In": 948,
      "Isa": 949,
      "Kad": 950,
      "Mus": 951,
      "Qo": 952,
      "Si": 953,
      "San": 954,
      "Soomaal": 955,
      "Ugu": 956,
      "Waa": 957,
      "av": 958,
      "ala": 959,
      "akam": 960,
      "bi": 961,
      "bee": 962,
      "ban": 963,
      "baar": 964,
      "db": 965,
      "dir": 966,
      "dil": 967,
      "doonka": 968,
      "ek": 969,
      "fan": 970,
      "gaad": 971,
      "haasi": 972,
      "kuu": 973,
      "keen": 974,
      "kood": 975,
      "keeda": 976,
      "li": 977,
      "lin": 978,
      "liga": 979,
      "min": 980,
      "mood": 981,
      "malka": 982,
      "nu": 983,
      "naan": 984,
      "net": 985,
      "olka": 986,
      "ree": 987,
      "rika": 988,
      "ska": 989,
      "tig": 990,
      "tida": 991,
      "toob": 992,
      "usho": 993,
      "yaha": 994,
      "yadan": 995,
      "Ġ,": 996,
      "Ġ3": 997,
      "Ġ7": 998,
      "ĠN": 999,
      "ĠX": 1000,
      "Ġo": 1001,
      "Ġaada": 1002,
      "Ġ''": 1003,
      "ĠWaxay": 1004,
      "aaw": 1005,
      "aaxii": 1006,
      "aysan": 1007,
      "aykanka": 1008,
      "oog": 1009,
      "oola": 1010,
      "daha": 1011,
      "aruur": 1012,
      "ing": 1013,
      "inayaan": 1014,
      "Ġsir": 1015,
      "Ġsayn": 1016,
      "Ġsaaxii": 1017,
      "laddu": 1018,
      "iid": 1019,
      "Ġwa": 1020,
      "Ġway": 1021,
      "Ġwey": 1022,
      "Ġweer": 1023,
      "Ġwaalid": 1024,
      "uul": 1025,
      "Ġdoo": 1026,
      "Ġdow": 1027,
      "Ġdiyaar": 1028,
      "Ġaqbal": 1029,
      "Ġmee": 1030,
      "Ġmana": 1031,
      "aanta": 1032,
      "Ġkac": 1033,
      "Ġkas": 1034,
      "Ġkama": 1035,
      "Ġkeen": 1036,
      "Ġkel": 1037,
      "Ġlaf": 1038,
      "Ġlahay": 1039,
      "Ġlama": 1040,
      "Ġlasoo": 1041,
      "Ġbul": 1042,
      "Ġinka": 1043,
      "iyaha": 1044,
      "iyaas": 1045,
      "iyadda": 1046,
      "Ġahi": 1047,
      "taqbal": 1048,
      "adh": 1049,
      "ado": 1050,
      "adii": 1051,
      "Ġusoo": 1052,
      "Ġunugyada": 1053,
      "eyb": 1054,
      "eyga": 1055,
      "eysa": 1056,
      "adaxweyne": 1057,
      "aale": 1058,
      "aalku": 1059,
      "Ġtij": 1060,
      "Ġtaalla": 1061,
      "Ġtoos": 1062,
      "Ġxan": 1063,
      "Ġxor": 1064,
      "Ġxeer": 1065,
      "Ġxuquuq": 1066,
      "aaday": 1067,
      "Ġqay": 1068,
      "Ġqar": 1069,
      "Ġqaatay": 1070,
      "Ġqeyb": 1071,
      "Ġcaala": 1072,
      "Ġcaruur": 1073,
      "ĠMex": 1074,
      "ĠMadaxweyne": 1075,
      "Ġsharr": 1076,
      "Ġlug": 1077,
      "Ġluuq": 1078,
      "ilaan": 1079,
      "Ġjeer": 1080,
      "Ġhab": 1081,
      "Ġhag": 1082,
      "ĠShiin": 1083,
      "ĠSew": 1084,
      "Ġdhib": 1085,
      "Ġdheer": 1086,
      "Ġdhaaf": 1087,
      "Ġdhigay": 1088,
      "Ġisu": 1089,
      "Ġiska": 1090,
      "Ġisaga": 1091,
      "Ġistic": 1092,
      "eynayay": 1093,
      "Ġfadh": 1094,
      "Ġfilaan": 1095,
      "urka": 1096,
      "Ġraad": 1097,
      "Ġrog": 1098,
      "Ġtag": 1099,
      "Ġtal": 1100,
      "Ġtalo": 1101,
      "Ġjira": 1102,
      "Ġilma": 1103,
      "Ġwaaweyn": 1104,
      "ĠMaraykanka": 1105,
      "ocd": 1106,
      "ĠGrea": 1107,
      "Ġsannadkii": 1108,
      "Ġjooga": 1109,
      "aysay": 1110,
      "Ġbarta": 1111,
      "ĠDr": 1112,
      "ĠDad": 1113,
      "ĠIn": 1114,
      "iirrig": 1115,
      "Ġdoonka": 1116,
      "Ġdoonaan": 1117,
      "ĠChat": 1118,
      "ico": 1119,
      "mond": 1120,
      "Ġ13": 1121,
      "Ġwaree": 1122,
      "Ġwarbix": 1123,
      "Ġdarr": 1124,
      "ooyad": 1125,
      "ĠKolka": 1126,
      "Ġsamayn": 1127,
      "Ġsameeyay": 1128,
      "ehr": 1129,
      "lkooda": 1130,
      "Ġgacan": 1131,
      "Ġgudb": 1132,
      "Ġnaf": 1133,
      "iisu": 1134,
      "iiska": 1135,
      "iisadda": 1136,
      "Ġyeelan": 1137,
      "Ġjoogaan": 1138,
      "ternet": 1139,
      "ĠReg": 1140,
      "Ġiyada": 1141,
      "oobay": 1142,
      "oobaha": 1143,
      "Ġbaah": 1144,
      "Ġbaahan": 1145,
      "Ġmagan": 1146,
      "Ġnolo": 1147,
      "ĠLe": 1148,
      "Ġmaalmood": 1149,
      "Ġtirsan": 1150,
      "ooyinka": 1151,
      "dhaq": 1152,
      "Ġkadibna": 1153,
      "Ġqaaday": 1154,
      "Ġhalkan": 1155,
      "Ġshaqo": 1156,
      "emia": 1157,
      "ĠWuxuu": 1158,
      "Ġdugsiga": 1159,
      "Ġmuuqa": 1160,
      "Ġdawladda": 1161,
      "sigii": 1162,
      "ĠSheekh": 1163,
      "ĠShaaban": 1164,
      "Ġbilaabay": 1165,
      "Ġtarxiilay": 1166,
      "Ġgurig": 1167,
      "Ġnoqon": 1168,
      "eder": 1169,
      "Ġwalba": 1170,
      "Ġmaxaa": 1171,
      "Ġmadax": 1172,
      "Ġciidam": 1173,
      "Ġ2023": 1174,
      "ĠMinnesota": 1175,
      "Ġsaaray": 1176,
      "Ġmaaddaama": 1177,
      "Ġmaamusho": 1178,
      "Ġkore": 1179,
      "keedu": 1180,
      "Ġsare": 1181,
      "Ġqaadan": 1182,
      "ĠStree": 1183,
      "ĠShabaab": 1184,
      "Ġfarriin": 1185,
      "Ġ199": 1186,
      "Ġsugayay": 1187,
      "Ġduullimaad": 1188,
      "Ġafduubka": 1189,
      "Ġkastaba": 1190,
      "Ġbuuxda": 1191,
      "Ġtoban": 1192,
      "Ġxabsiga": 1193,
      "Ġdacw": 1194,
      "Ġcilmi": 1195,
      "Ġshirka": 1196,
      "Ġmacmalka": 1197,
      "Ġtaleefan": 1198,
      "ĠAdem": 1199,
      "ĠAfrika": 1200,
      "ĠIslaamka": 1201,
      "ĠOrmond": 1202,
      "Ġabuurtay": 1203,
      "Ġbandhig": 1204,
      "Ġawoodin": 1205,
      "Ġtelefoonkaaga": 1206,
      "Daweyn": 1207,
      "GPT": 1208,
      "Hase": 1209,
      "Kadib": 1210,
      "Sannadkii": 1211,
      "baarista": 1212,
      "diris": 1213,
      "gaadh": 1214,
      "keenna": 1215,
      "oolaj": 1216,
      "Ġsirdoonka": 1217,
      "Ġsaynis": 1218,
      "Ġkeliya": 1219,
      "Ġbulshada": 1220,
      "Ġtijaabada": 1221,
      "Ġcaalamka": 1222,
      "ĠMexico": 1223,
      "Ġsharrax": 1224,
      "ĠShiinaha": 1225,
      "ĠSewell": 1226,
      "ĠGreat": 1227,
      "ĠChatGPT": 1228,
      "ĠKolkata": 1229,
      "ĠRegehr": 1230,
      "ĠStreet": 1231,
      "\"''": 1232,
      "'d": 1233,
      "AT": 1234,
      "Af": 1235,
      "Bishii": 1236,
      "Dh": 1237,
      "Dr": 1238,
      "Dar": 1239,
      "Dowladda": 1240,
      "GO": 1241,
      "Hor": 1242,
      "Is": 1243,
      "Inka": 1244,
      "Idiris": 1245,
      "Li": 1246,
      "Lif": 1247,
      "Ma": 1248,
      "Messi": 1249,
      "NA": 1250,
      "Qaab": 1251,
      "Socd": 1252,
      "Tan": 1253,
      "Tani": 1254,
      "Waan": 1255,
      "Xar": 1256,
      "at": 1257,
      "ash": 1258,
      "aul": 1259,
      "ashada": 1260,
      "baad": 1261,
      "ber": 1262,
      "beddel": 1263,
      "barta": 1264,
      "ceyn": 1265,
      "daasi": 1266,
      "diya": 1267,
      "dub": 1268,
      "egay": 1269,
      "ebi": 1270,
      "fur": 1271,
      "ge": 1272,
      "gh": 1273,
      "gax": 1274,
      "hr": 1275,
      "haas": 1276,
      "iam": 1277,
      "ilad": 1278,
      "jee": 1279,
      "jir": 1280,
      "kr": 1281,
      "kha": 1282,
      "kaas": 1283,
      "koon": 1284,
      "kaasi": 1285,
      "ktoob": 1286,
      "keyga": 1287,
      "ls": 1288,
      "ly": 1289,
      "lim": 1290,
      "mi": 1291,
      "maad": 1292,
      "msan": 1293,
      "madda": 1294,
      "mayn": 1295,
      "meel": 1296,
      "mihii": 1297,
      "miid": 1298,
      "miyaha": 1299,
      "nay": 1300,
      "nta": 1301,
      "nkii": 1302,
      "noolaj": 1303,
      "our": 1304,
      "odd": 1305,
      "ph": 1306,
      "pp": 1307,
      "qan": 1308,
      "rg": 1309,
      "raan": 1310,
      "ris": 1311,
      "rog": 1312,
      "reeyay": 1313,
      "raac": 1314,
      "sus": 1315,
      "siyada": 1316,
      "siiska": 1317,
      "too": 1318,
      "tee": 1319,
      "tar": 1320,
      "taan": 1321,
      "taas": 1322,
      "taada": 1323,
      "ut": 1324,
      "uw": 1325,
      "uka": 1326,
      "xad": 1327,
      "yar": 1328,
      "yeen": 1329,
      "Ġ.": 1330,
      "Ġ4": 1331,
      "Ġ9": 1332,
      "ĠY": 1333,
      "Ġim": 1334,
      "Ġaala": 1335,
      "Ġaag": 1336,
      "ĠWaxa": 1337,
      "Ġek": 1338,
      "aax": 1339,
      "aay": 1340,
      "aagay": 1341,
      "aatan": 1342,
      "ayaas": 1343,
      "ool": 1344,
      "oomiyaha": 1345,
      "dag": 1346,
      "dan": 1347,
      "aran": 1348,
      "artay": 1349,
      "ina": 1350,
      "ini": 1351,
      "intan": 1352,
      "indiya": 1353,
      "Ġsax": 1354,
      "Ġsaab": 1355,
      "Ġsuur": 1356,
      "latay": 1357,
      "lato": 1358,
      "iic": 1359,
      "iil": 1360,
      "iiq": 1361,
      "iima": 1362,
      "iibo": 1363,
      "iimka": 1364,
      "Ġwan": 1365,
      "Ġwaana": 1366,
      "Ġwaq": 1367,
      "Ġwix": 1368,
      "Ġwaj": 1369,
      "Ġwayd": 1370,
      "uud": 1371,
      "uun": 1372,
      "Ġdii": 1373,
      "Ġdir": 1374,
      "Ġdil": 1375,
      "Ġdood": 1376,
      "Ġdemb": 1377,
      "Ġaj": 1378,
      "Ġas": 1379,
      "Ġadag": 1380,
      "Ġaynu": 1381,
      "Ġmiy": 1382,
      "Ġmur": 1383,
      "Ġmus": 1384,
      "Ġkadd": 1385,
      "Ġkasoo": 1386,
      "Ġkals": 1387,
      "Ġkuu": 1388,
      "Ġkir": 1389,
      "Ġkiis": 1390,
      "Ġkoob": 1391,
      "anac": 1392,
      "aniisadda": 1393,
      "Ġlag": 1394,
      "Ġlala": 1395,
      "Ġlabo": 1396,
      "Ġboo": 1397,
      "Ġbad": 1398,
      "Ġbaab": 1399,
      "Ġbaar": 1400,
      "Ġbood": 1401,
      "Ġbaq": 1402,
      "Ġbishii": 1403,
      "Ġindha": 1404,
      "Ġinternet": 1405,
      "Ġintaas": 1406,
      "iye": 1407,
      "iyaad": 1408,
      "Ġahey": 1409,
      "Ġoogay": 1410,
      "gagax": 1411,
      "Ġugaadh": 1412,
      "Ġwaxaad": 1413,
      "Ġtu": 1414,
      "Ġtuur": 1415,
      "Ġtik": 1416,
      "Ġtidhi": 1417,
      "Ġtegay": 1418,
      "Ġuun": 1419,
      "Ġxid": 1420,
      "Ġxog": 1421,
      "Ġxun": 1422,
      "Ġxas": 1423,
      "Ġxabsi": 1424,
      "Ġxakam": 1425,
      "Ġxoog": 1426,
      "aadda": 1427,
      "aadeen": 1428,
      "gudub": 1429,
      "Ġqal": 1430,
      "Ġqala": 1431,
      "Ġqiyaas": 1432,
      "Ġdal": 1433,
      "Ġdaweyn": 1434,
      "Ġdabee": 1435,
      "idaam": 1436,
      "Ġcis": 1437,
      "Ġcaab": 1438,
      "Ġcel": 1439,
      "Ġcaasi": 1440,
      "Ġcun": 1441,
      "Ġcaanka": 1442,
      "Ġcud": 1443,
      "Ġcadd": 1444,
      "Ġciyaar": 1445,
      "Ġyidhi": 1446,
      "kiis": 1447,
      "ĠMo": 1448,
      "ĠMid": 1449,
      "ĠMiam": 1450,
      "Ġhe": 1451,
      "Ġhay": 1452,
      "Ġheer": 1453,
      "Ġheys": 1454,
      "Ġhog": 1455,
      "Ġhayay": 1456,
      "Ġheli": 1457,
      "Ġhaatan": 1458,
      "Ġlun": 1459,
      "Ġlix": 1460,
      "Ġleeda": 1461,
      "ilka": 1462,
      "Ġjaa": 1463,
      "Ġjii": 1464,
      "Ġjeed": 1465,
      "Ġjeeda": 1466,
      "nal": 1467,
      "nahay": 1468,
      "aabay": 1469,
      "Ġdhalay": 1470,
      "Ġdhalee": 1471,
      "Ġdhalatay": 1472,
      "Ġhase": 1473,
      "abad": 1474,
      "allo": 1475,
      "elona": 1476,
      "orta": 1477,
      "ĠSiyaad": 1478,
      "Ġdhu": 1479,
      "Ġdhim": 1480,
      "Ġdhisay": 1481,
      "Ġdhiirrig": 1482,
      "Ġmarinta": 1483,
      "\"\",": 1484,
      "Ġisoo": 1485,
      "Ġisdil": 1486,
      "Ġiskuu": 1487,
      "Ġismiid": 1488,
      "aamin": 1489,
      "aamac": 1490,
      "gaya": 1491,
      "samin": 1492,
      "sanaa": 1493,
      "sanayn": 1494,
      "sanayay": 1495,
      "sanayaa": 1496,
      "hayeen": 1497,
      "hayaga": 1498,
      "Ġfiic": 1499,
      "aarka": 1500,
      "toy": 1501,
      "Ġgeeyay": 1502,
      "Ġguul": 1503,
      "Ġgoobaha": 1504,
      "Ġgebi": 1505,
      "Ġganac": 1506,
      "imada": 1507,
      "dday": 1508,
      "Ġrab": 1509,
      "oonfur": 1510,
      "Ġnidaam": 1511,
      "Ġtab": 1512,
      "Ġtahr": 1513,
      "Ġtakha": 1514,
      "eri": 1515,
      "eeyeen": 1516,
      "Ġwaxayna": 1517,
      "Ġjiro": 1518,
      "Ġjirta": 1519,
      "Ġhorreeyay": 1520,
      "base": 1521,
      "bakad": 1522,
      "lege": 1523,
      "ĠAI": 1524,
      "ĠAm": 1525,
      "tiij": 1526,
      "maalka": 1527,
      "obaad": 1528,
      "shiisa": 1529,
      "itaanka": 1530,
      "low": 1531,
      "Ġkariimka": 1532,
      "owdo": 1533,
      "Ġaadin": 1534,
      "Ġaadaanka": 1535,
      "arciga": 1536,
      "arcelona": 1537,
      "Ġsannad": 1538,
      "Ġkalena": 1539,
      "ugo": 1540,
      "aystay": 1541,
      "Ġbaraha": 1542,
      "Ġbartiisa": 1543,
      "ĠDowladda": 1544,
      "ĠDonal": 1545,
      "ĠDNA": 1546,
      "Ġbillow": 1547,
      "ĠInd": 1548,
      "Ġargagax": 1549,
      "iiradda": 1550,
      "Ġdoonayay": 1551,
      "Ġlagaga": 1552,
      "Ġnooc": 1553,
      "uly": 1554,
      "untii": 1555,
      "ĠCol": 1556,
      "Ġdibna": 1557,
      "Ġdambeeyay": 1558,
      "Ġ16": 1559,
      "Ġ18": 1560,
      "Ġshan": 1561,
      "Ġshabakad": 1562,
      "Ġwararkii": 1563,
      "Ġwareeg": 1564,
      "Ġdaray": 1565,
      "Ġdartay": 1566,
      "kayaga": 1567,
      "sade": 1568,
      "ĠBarcelona": 1569,
      "aadaha": 1570,
      "Ġkuwo": 1571,
      "Ġkuwaasi": 1572,
      "Ġqaba": 1573,
      "Ġqabo": 1574,
      "Ġqabq": 1575,
      "Ġ2000": 1576,
      "haajir": 1577,
      "ĠKen": 1578,
      "ĠKaniisadda": 1579,
      "ĠKoonfur": 1580,
      "Ġsidd": 1581,
      "Ġsidee": 1582,
      "Ġsameeyo": 1583,
      "ahaya": 1584,
      "Ġgac": 1585,
      "Ġgabad": 1586,
      "Ġnaga": 1587,
      "Ġnagu": 1588,
      "Ġnatiij": 1589,
      "aagin": 1590,
      "Ġsharciga": 1591,
      "Ġsheegen": 1592,
      "don": 1593,
      "Ġyeelay": 1594,
      "Ġyeelato": 1595,
      "Ġdhaqaale": 1596,
      "Ġxiriirkaaga": 1597,
      "Ġjoogto": 1598,
      "yska": 1599,
      "yssa": 1600,
      "ĠHal": 1601,
      "ĠHooyad": 1602,
      "ĠHindiya": 1603,
      "ĠRobot": 1604,
      "ĠRonal": 1605,
      "Ġadiga": 1606,
      "Ġmuhii": 1607,
      "Ġmuhaajir": 1608,
      "Ġbaaq": 1609,
      "Ġdhaca": 1610,
      "ĠLon": 1611,
      "Ġwiilk": 1612,
      "Ġamaba": 1613,
      "Ġkhataraha": 1614,
      "Ġlahaayeen": 1615,
      "Ġball": 1616,
      "Ġtira": 1617,
      "Ġtirtir": 1618,
      "Ġeedeeyay": 1619,
      "Ġeedeeyo": 1620,
      "Ġsharcigu": 1621,
      "dhabarta": 1622,
      "tani": 1623,
      "ĠJaamac": 1624,
      "ĠJuly": 1625,
      "ĠMinesota": 1626,
      "000": 1627,
      "ahooda": 1628,
      "aheri": 1629,
      "dheer": 1630,
      "onel": 1631,
      "ĠOktoob": 1632,
      "kadu": 1633,
      "Ġdugsi": 1634,
      "Ġdugsiyada": 1635,
      "Ġabaal": 1636,
      "Ġafka": 1637,
      "Ġmuuqaal": 1638,
      "Ġmeelood": 1639,
      "Ġwaxyeel": 1640,
      "Ġdaweeyay": 1641,
      "sigiisa": 1642,
      "Ġilaalinayo": 1643,
      "Ġbarnaamijyada": 1644,
      "Ġbilaabo": 1645,
      "Ġtarxiilka": 1646,
      "Ġtarxiilo": 1647,
      "Ġwalaal": 1648,
      "Ġmaxal": 1649,
      "Ġmaxkam": 1650,
      "Ġmadad": 1651,
      "Ġahaatee": 1652,
      "Ġadeegsado": 1653,
      "Ġadeegsaday": 1654,
      "Ġtallaabo": 1655,
      "Ġtallaabooyin": 1656,
      "ĠFeder": 1657,
      "ĠFaran": 1658,
      "Ġwadaagay": 1659,
      "Ġmaadaama": 1660,
      "Ġbaxay": 1661,
      "Ġbaxsado": 1662,
      "Ġahaanba": 1663,
      "Ġkulm": 1664,
      "Ġkulul": 1665,
      "Ġtaasoo": 1666,
      "Ġxadka": 1667,
      "Ġxilli": 1668,
      "Ġxillig": 1669,
      "Ġlaabtay": 1670,
      "Ġhalista": 1671,
      "Ġdhigaan": 1672,
      "Ġaragno": 1673,
      "Ġmaalintii": 1674,
      "Ġsababta": 1675,
      "Haddaba": 1676,
      "baday": 1677,
      "Ġarrimo": 1678,
      "Ġarrintan": 1679,
      "intaan": 1680,
      "Ġtaageer": 1681,
      "Ġeegto": 1682,
      "Ġeegno": 1683,
      "Ġcodsigiisa": 1684,
      "Ġhelin": 1685,
      "Ġfursado": 1686,
      "Ġgaran": 1687,
      "ĠAlyssa": 1688,
      "Ġqoyskayaga": 1689,
      "Ġnoolasha": 1690,
      "Ġ2017": 1691,
      "Ġdaawan": 1692,
      "Ġdaawada": 1693,
      "Ġdaaweynta": 1694,
      "Ġdaaweyntu": 1695,
      "Ġeedeyeen": 1696,
      "Ġfariimo": 1697,
      "Ġfariimaha": 1698,
      "Ġbukaanada": 1699,
      "Ġcaafimaadka": 1700,
      "Sheekh": 1701,
      "Sharciga": 1702,
      "Tok": 1703,
      "diiyay": 1704,
      "gelyo": 1705,
      "ĠPaul": 1706,
      "darro": 1707,
      "darrada": 1708,
      "Ġsafarkii": 1709,
      "Ġlacag": 1710,
      "Ġlacaga": 1711,
      "Ġbixiyay": 1712,
      "Ġtaxan": 1713,
      "Ġtaxaabay": 1714,
      "Ġtilmaamay": 1715,
      "Ġyaabi": 1716,
      "Ġyimaadeen": 1717,
      "Ġyaqaanno": 1718,
      "Ġdhawaad": 1719,
      "Ġrajo": 1720,
      "Ġhortago": 1721,
      "ĠTikTok": 1722,
      "Ġqabanayo": 1723,
      "Ġxarumo": 1724,
      "Ġxarumaha": 1725,
      "Ġalbaabada": 1726,
      "Ġalbaabbada": 1727,
      "Ġdifaaca": 1728,
      "Inaad": 1729,
      "Isaga": 1730,
      "Mustaqbal": 1731,
      "Soomaalida": 1732,
      "avaheri": 1733,
      "tigaas": 1734,
      "Ġof": 1735,
      "Ġaadanaha": 1736,
      "Ġwakh": 1737,
      "Ġweydiiyay": 1738,
      "Ġdoona": 1739,
      "Ġdowlad": 1740,
      "Ġdiyaarad": 1741,
      "Ġmeelaha": 1742,
      "Ġlahayd": 1743,
      "Ġinkasta": 1744,
      "Ġtooska": 1745,
      "Ġxeerar": 1746,
      "Ġxuquuqda": 1747,
      "Ġqayb": 1748,
      "Ġluuqadda": 1749,
      "Ġdhibaato": 1750,
      "Ġdheeraad": 1751,
      "Ġdhigaysa": 1752,
      "Ġfadhiya": 1753,
      "Ġrogrog": 1754,
      "Ġtalogalay": 1755,
      "Ġilmahayaga": 1756,
      "Ġdarro": 1757,
      "Ġgacanta": 1758,
      "Ġnaftiisa": 1759,
      "Ġnolosh": 1760,
      "dhaqaaq": 1761,
      "Ġciidamada": 1762,
      "Ġtaleefankaaga": 1763,
      "GOAT": 1764,
      "Lionel": 1765,
      "Socdaalku": 1766,
      "limiinta": 1767,
      "noolajiyadda": 1768,
      "raantii": 1769,
      "ukaemia": 1770,
      "Ġsaabsan": 1771,
      "Ġwanaag": 1772,
      "Ġwaqtigaas": 1773,
      "Ġwixii": 1774,
      "Ġwajahaya": 1775,
      "Ġwaydiin": 1776,
      "Ġdiray": 1777,
      "Ġdembi": 1778,
      "Ġmurugo": 1779,
      "Ġkaddib": 1780,
      "Ġkalsoon": 1781,
      "Ġbadbaad": 1782,
      "Ġbooday": 1783,
      "Ġaheyd": 1784,
      "Ġugaadhsade": 1785,
      "Ġtuuray": 1786,
      "Ġqalab": 1787,
      "Ġdabeec": 1788,
      "Ġcaabuq": 1789,
      "Ġcaasimadda": 1790,
      "Ġcunaan": 1791,
      "Ġcudurka": 1792,
      "ĠMiami": 1793,
      "Ġleedahay": 1794,
      "Ġdhaleeceyn": 1795,
      "Ġdhiirrigeliyay": 1796,
      "Ġisdilo": 1797,
      "Ġiskuulka": 1798,
      "Ġismiidaamin": 1799,
      "Ġtahriibo": 1800,
      "Ġtakhasus": 1801,
      "Ġsannado": 1802,
      "ĠDonald": 1803,
      "ĠIndia": 1804,
      "ĠCollege": 1805,
      "ĠKenya": 1806,
      "Ġgabadh": 1807,
      "ĠHooyadiis": 1808,
      "ĠRonaldo": 1809,
      "Ġmuhaajiriinta": 1810,
      "ĠLondon": 1811,
      "Ġtirtiro": 1812,
      "ĠOktoobar": 1813,
      "ĠFederaalka": 1814,
      "ĠFaransiiska": 1815
    },
    "merges": [
      [
        "a",
        "a"
      ],
      [
        "a",
        "y"
      ],
      [
        "k",
        "a"
      ],
      [
        "o",
        "o"
      ],
      [
        "d",
        "a"
      ],
      [
        "e",
        "e"
      ],
      [
        "a",
        "r"
      ],
      [
        "i",
        "n"
      ],
      [
        "Ġ",
        "s"
      ],
      [
        "l",
        "a"
      ],
      [
        "h",
        "a"
      ],
      [
        "i",
        "i"
      ],
      [
        "Ġ",
        "w"
      ],
      [
        "u",
        "u"
      ],
      [
        "Ġ",
        "d"
      ],
      [
        "Ġ",
        "a"
      ],
      [
        "Ġ",
        "ay"
      ],
      [
        "Ġ",
        "m"
      ],
      [
        "aa",
        "n"
      ],
      [
        "Ġ",
        "ka"
      ],
      [
        "Ġ",
        "k"
      ],
      [
        "a",
        "n"
      ],
      [
        "a",
        "x"
      ],
      [
        "č",
        "Ċ"
      ],
      [
        "Ġ",
        "la"
      ],
      [
        "Ġ",
        "b"
      ],
      [
        "Ġ",
        "in"
      ],
      [
        "i",
        "y"
      ],
      [
        "Ġa",
        "h"
      ],
      [
        "t",
        "a"
      ],
      [
        "Ġ",
        "oo"
      ],
      [
        "a",
        "d"
      ],
      [
        "Ġk",
        "u"
      ],
      [
        "g",
        "a"
      ],
      [
        "Ġ",
        "u"
      ],
      [
        "e",
        "y"
      ],
      [
        "a",
        "da"
      ],
      [
        "i",
        "r"
      ],
      [
        "Ġw",
        "ax"
      ],
      [
        ".",
        "\""
      ],
      [
        "aa",
        "l"
      ],
      [
        "Ġ",
        "t"
      ],
      [
        "Ġ",
        "uu"
      ],
      [
        "i",
        "s"
      ],
      [
        "Ġ",
        "x"
      ],
      [
        "aa",
        "d"
      ],
      [
        "g",
        "u"
      ],
      [
        "Ġ",
        "q"
      ],
      [
        "Ġ",
        "ee"
      ],
      [
        "Ġ",
        "da"
      ],
      [
        "i",
        "d"
      ],
      [
        "Ġ",
        "c"
      ],
      [
        "Ġ",
        "y"
      ],
      [
        "k",
        "ii"
      ],
      [
        "Ġ",
        "M"
      ],
      [
        "s",
        "i"
      ],
      [
        "Ġay",
        "aa"
      ],
      [
        "Ġ",
        "h"
      ],
      [
        "Ġs",
        "h"
      ],
      [
        "Ġ",
        "l"
      ],
      [
        "i",
        "l"
      ],
      [
        "Ġ",
        "j"
      ],
      [
        "iy",
        "o"
      ],
      [
        "n",
        "a"
      ],
      [
        "aa",
        "b"
      ],
      [
        "Ġd",
        "ha"
      ],
      [
        "Ġ",
        "ha"
      ],
      [
        "a",
        "b"
      ],
      [
        "a",
        "l"
      ],
      [
        "ee",
        "n"
      ],
      [
        "Ġ",
        "iyo"
      ],
      [
        "e",
        "l"
      ],
      [
        "o",
        "r"
      ],
      [
        "Ġ",
        "S"
      ],
      [
        "Ġs",
        "i"
      ],
      [
        "Ġsh",
        "ee"
      ],
      [
        "Ġd",
        "h"
      ],
      [
        "Ġm",
        "ar"
      ],
      [
        "\"",
        "\""
      ],
      [
        "a",
        "ha"
      ],
      [
        "Ġ",
        "is"
      ],
      [
        "ey",
        "n"
      ],
      [
        "l",
        "ka"
      ],
      [
        "Ġ",
        "aan"
      ],
      [
        "aa",
        "m"
      ],
      [
        "g",
        "ay"
      ],
      [
        "s",
        "a"
      ],
      [
        "s",
        "an"
      ],
      [
        "h",
        "ay"
      ],
      [
        "t",
        "ay"
      ],
      [
        "Ġ",
        "f"
      ],
      [
        "i",
        "in"
      ],
      [
        "u",
        "r"
      ],
      [
        "aa",
        "r"
      ],
      [
        "Ġm",
        "a"
      ],
      [
        "aa",
        "s"
      ],
      [
        "t",
        "o"
      ],
      [
        "Ġ",
        "g"
      ],
      [
        "Ġl",
        "oo"
      ],
      [
        "i",
        "m"
      ],
      [
        "d",
        "d"
      ],
      [
        "i",
        "b"
      ],
      [
        "Ġ",
        "r"
      ],
      [
        "oo",
        "n"
      ],
      [
        "Ġ",
        "n"
      ],
      [
        "Ġ",
        "ta"
      ],
      [
        "ada",
        "n"
      ],
      [
        "Ġla",
        "gu"
      ],
      [
        "d",
        "da"
      ],
      [
        "e",
        "r"
      ],
      [
        "ee",
        "y"
      ],
      [
        "ad",
        "da"
      ],
      [
        "Ġwax",
        "ay"
      ],
      [
        "Ġs",
        "oo"
      ],
      [
        "Ġj",
        "ir"
      ],
      [
        "aa",
        "si"
      ],
      [
        "oo",
        "d"
      ],
      [
        "Ġm",
        "id"
      ],
      [
        "Ġb",
        "adan"
      ],
      [
        "Ġx",
        "ir"
      ],
      [
        "Ġh",
        "or"
      ],
      [
        "W",
        "ax"
      ],
      [
        "b",
        "a"
      ],
      [
        "i",
        "g"
      ],
      [
        "l",
        "e"
      ],
      [
        "ka",
        "n"
      ],
      [
        "u",
        "x"
      ],
      [
        "Ġ",
        "A"
      ],
      [
        "Ġshee",
        "gay"
      ],
      [
        "t",
        "ii"
      ],
      [
        "ay",
        "n"
      ],
      [
        "ar",
        "r"
      ],
      [
        "Ġu",
        "gu"
      ],
      [
        "Ġmar",
        "kii"
      ],
      [
        "m",
        "aal"
      ],
      [
        "o",
        "b"
      ],
      [
        "s",
        "h"
      ],
      [
        "uu",
        "r"
      ],
      [
        "Ġwax",
        "aa"
      ],
      [
        "Ġ",
        "il"
      ],
      [
        "Ġ",
        "\"\""
      ],
      [
        "ee",
        "r"
      ],
      [
        "Ġw",
        "aa"
      ],
      [
        "ĠM",
        "ar"
      ],
      [
        "ux",
        "uu"
      ],
      [
        "i",
        "t"
      ],
      [
        "i",
        "da"
      ],
      [
        "l",
        "o"
      ],
      [
        "m",
        "a"
      ],
      [
        "aa",
        "la"
      ],
      [
        "Ġka",
        "r"
      ],
      [
        "Ġq",
        "o"
      ],
      [
        "m",
        "b"
      ],
      [
        "o",
        "c"
      ],
      [
        "Ġ",
        "G"
      ],
      [
        "oo",
        "maal"
      ],
      [
        "ey",
        "s"
      ],
      [
        "o",
        "w"
      ],
      [
        "Ġ",
        "aad"
      ],
      [
        "ar",
        "c"
      ],
      [
        "Ġs",
        "an"
      ],
      [
        "aan",
        "a"
      ],
      [
        "Ġka",
        "le"
      ],
      [
        "Ġj",
        "oo"
      ],
      [
        "a",
        "m"
      ],
      [
        "o",
        "g"
      ],
      [
        "u",
        "g"
      ],
      [
        "ay",
        "s"
      ],
      [
        "Ġb",
        "ar"
      ],
      [
        "k",
        "u"
      ],
      [
        "Ġ",
        "D"
      ],
      [
        "Ġs",
        "oc"
      ],
      [
        "Ġb",
        "il"
      ],
      [
        "ĠS",
        "oomaal"
      ],
      [
        "kan",
        "ka"
      ],
      [
        "a",
        "g"
      ],
      [
        "a",
        "q"
      ],
      [
        "e",
        "s"
      ],
      [
        "e",
        "x"
      ],
      [
        "i",
        "ga"
      ],
      [
        "s",
        "e"
      ],
      [
        "u",
        "s"
      ],
      [
        "Ġ",
        "I"
      ],
      [
        "Ġ",
        "T"
      ],
      [
        "Ġ",
        "ar"
      ],
      [
        "ii",
        "r"
      ],
      [
        "uu",
        "q"
      ],
      [
        "Ġd",
        "oon"
      ],
      [
        "Ġla",
        "ga"
      ],
      [
        "ir",
        "i"
      ],
      [
        "aal",
        "ka"
      ],
      [
        "Ġn",
        "oo"
      ],
      [
        "u",
        "l"
      ],
      [
        "u",
        "n"
      ],
      [
        "w",
        "eyn"
      ],
      [
        "Ġ",
        "("
      ],
      [
        "Ġ",
        "2"
      ],
      [
        "Ġ",
        "C"
      ],
      [
        "Ġw",
        "uxuu"
      ],
      [
        "Ġd",
        "ib"
      ],
      [
        "iy",
        "a"
      ],
      [
        "Ġda",
        "mb"
      ],
      [
        "e",
        "a"
      ],
      [
        "i",
        "c"
      ],
      [
        "i",
        "x"
      ],
      [
        "l",
        "l"
      ],
      [
        "m",
        "o"
      ],
      [
        "y",
        "ada"
      ],
      [
        "Ġ",
        "1"
      ],
      [
        "ee",
        "d"
      ],
      [
        "ar",
        "kii"
      ],
      [
        "Ġs",
        "ha"
      ],
      [
        "ha",
        "t"
      ],
      [
        "Ġw",
        "ar"
      ],
      [
        "aan",
        "ka"
      ],
      [
        "iy",
        "ay"
      ],
      [
        "Ġt",
        "ar"
      ],
      [
        "Ġda",
        "r"
      ],
      [
        "si",
        "ga"
      ],
      [
        "eey",
        "ay"
      ],
      [
        "ob",
        "o"
      ],
      [
        "Ġqo",
        "f"
      ],
      [
        "h",
        "ii"
      ],
      [
        "k",
        "ay"
      ],
      [
        "l",
        "ay"
      ],
      [
        "s",
        "ad"
      ],
      [
        "u",
        "q"
      ],
      [
        "Ġ",
        "B"
      ],
      [
        "aa",
        "da"
      ],
      [
        "ay",
        "o"
      ],
      [
        "oo",
        "y"
      ],
      [
        "Ġku",
        "w"
      ],
      [
        "Ġq",
        "ab"
      ],
      [
        "Ġda",
        "d"
      ],
      [
        "Ġda",
        "lka"
      ],
      [
        "ĠMar",
        "ey"
      ],
      [
        "Ġ2",
        "0"
      ],
      [
        "h",
        "aa"
      ],
      [
        "i",
        "a"
      ],
      [
        "u",
        "d"
      ],
      [
        "Ġ",
        "K"
      ],
      [
        "aa",
        "c"
      ],
      [
        "Ġs",
        "id"
      ],
      [
        "Ġs",
        "am"
      ],
      [
        "Ġd",
        "aa"
      ],
      [
        "Ġay",
        "uu"
      ],
      [
        "Ġx",
        "ar"
      ],
      [
        "ĠMarey",
        "kanka"
      ],
      [
        "a",
        "hay"
      ],
      [
        "e",
        "h"
      ],
      [
        "h",
        "iin"
      ],
      [
        "l",
        "k"
      ],
      [
        "s",
        "ha"
      ],
      [
        "Ġ",
        "ga"
      ],
      [
        "Ġ",
        "gu"
      ],
      [
        "Ġ",
        "na"
      ],
      [
        "aa",
        "f"
      ],
      [
        "aa",
        "g"
      ],
      [
        "ay",
        "ay"
      ],
      [
        "ee",
        "l"
      ],
      [
        "ii",
        "s"
      ],
      [
        "Ġin",
        "ay"
      ],
      [
        "ad",
        "d"
      ],
      [
        "Ġwax",
        "aana"
      ],
      [
        "Ġy",
        "iri"
      ],
      [
        "Ġsh",
        "arc"
      ],
      [
        "Ġha",
        "dda"
      ],
      [
        "Ġshee",
        "g"
      ],
      [
        "ĠSoomaal",
        "ida"
      ],
      [
        "d",
        "o"
      ],
      [
        "i",
        "j"
      ],
      [
        "j",
        "in"
      ],
      [
        "k",
        "h"
      ],
      [
        "n",
        "ad"
      ],
      [
        "r",
        "ea"
      ],
      [
        "u",
        "b"
      ],
      [
        "x",
        "da"
      ],
      [
        "oo",
        "da"
      ],
      [
        "ee",
        "da"
      ],
      [
        "Ġs",
        "ii"
      ],
      [
        "Ġw",
        "ada"
      ],
      [
        "Ġwax",
        "a"
      ],
      [
        "Ġy",
        "ee"
      ],
      [
        "Ġdha",
        "q"
      ],
      [
        "Ġsi",
        "da"
      ],
      [
        "iin",
        "ta"
      ],
      [
        "im",
        "aad"
      ],
      [
        "Ġxir",
        "iir"
      ],
      [
        "Ġhor",
        "e"
      ],
      [
        "Ġjoo",
        "g"
      ],
      [
        "aq",
        "aan"
      ],
      [
        "'",
        "'"
      ],
      [
        "a",
        "c"
      ],
      [
        "a",
        "ga"
      ],
      [
        "d",
        "ay"
      ],
      [
        "m",
        "aha"
      ],
      [
        "n",
        "o"
      ],
      [
        "s",
        "ta"
      ],
      [
        "t",
        "aa"
      ],
      [
        "t",
        "er"
      ],
      [
        "x",
        "ii"
      ],
      [
        "y",
        "s"
      ],
      [
        "Ġ",
        "E"
      ],
      [
        "Ġ",
        "H"
      ],
      [
        "Ġ",
        "R"
      ],
      [
        "Ġ",
        "iy"
      ],
      [
        "ay",
        "a"
      ],
      [
        "oo",
        "b"
      ],
      [
        "ee",
        "g"
      ],
      [
        "la",
        "dda"
      ],
      [
        "Ġa",
        "d"
      ],
      [
        "Ġay",
        "san"
      ],
      [
        "Ġm",
        "u"
      ],
      [
        "Ġb",
        "aa"
      ],
      [
        "Ġc",
        "arr"
      ],
      [
        "Ġdha",
        "c"
      ],
      [
        "Ġshee",
        "kay"
      ],
      [
        "aha",
        "d"
      ],
      [
        "Ġma",
        "g"
      ],
      [
        "Ġn",
        "o"
      ],
      [
        "Ġsoc",
        "d"
      ],
      [
        "hat",
        "ar"
      ],
      [
        "obo",
        "t"
      ],
      [
        "Ġcarr",
        "uur"
      ],
      [
        "M",
        "arkii"
      ],
      [
        "a",
        "f"
      ],
      [
        "h",
        "o"
      ],
      [
        "i",
        "hiin"
      ],
      [
        "m",
        "m"
      ],
      [
        "s",
        "oo"
      ],
      [
        "Ġ",
        "L"
      ],
      [
        "Ġ",
        "og"
      ],
      [
        "ar",
        "ka"
      ],
      [
        "Ġw",
        "ii"
      ],
      [
        "Ġa",
        "m"
      ],
      [
        "Ġm",
        "aal"
      ],
      [
        "Ġka",
        "n"
      ],
      [
        "Ġk",
        "hatar"
      ],
      [
        "Ġla",
        "haa"
      ],
      [
        "Ġb",
        "al"
      ],
      [
        ".\"",
        "\"\""
      ],
      [
        "Ġt",
        "ir"
      ],
      [
        "Ġee",
        "d"
      ],
      [
        "Ġg",
        "aar"
      ],
      [
        "Ġloo",
        "gu"
      ],
      [
        "Ġxir",
        "ay"
      ],
      [
        "Ġil",
        "aa"
      ],
      [
        "aala",
        "da"
      ],
      [
        "ooy",
        "in"
      ],
      [
        "Ġsharc",
        "i"
      ],
      [
        "a",
        "w"
      ],
      [
        "d",
        "ha"
      ],
      [
        "d",
        "ib"
      ],
      [
        "e",
        "dd"
      ],
      [
        "k",
        "aa"
      ],
      [
        "o",
        "l"
      ],
      [
        "r",
        "it"
      ],
      [
        "t",
        "an"
      ],
      [
        "u",
        "m"
      ],
      [
        "Ġ",
        "J"
      ],
      [
        "Ġ",
        "U"
      ],
      [
        "ay",
        "aa"
      ],
      [
        "ay",
        "aan"
      ],
      [
        "Ġs",
        "add"
      ],
      [
        "Ġw",
        "eyn"
      ],
      [
        "Ġka",
        "la"
      ],
      [
        "Ġka",
        "dib"
      ],
      [
        "Ġk",
        "oo"
      ],
      [
        "Ġin",
        "uu"
      ],
      [
        "Ġin",
        "aad"
      ],
      [
        "aal",
        "la"
      ],
      [
        "Ġq",
        "aad"
      ],
      [
        "Ġy",
        "ahay"
      ],
      [
        "Ġy",
        "ihiin"
      ],
      [
        "ĠM",
        "in"
      ],
      [
        "il",
        "m"
      ],
      [
        "Ġdha",
        "n"
      ],
      [
        "Ġha",
        "lka"
      ],
      [
        "el",
        "i"
      ],
      [
        "aam",
        "ij"
      ],
      [
        "Ġf",
        "ar"
      ],
      [
        "Ġr",
        "obot"
      ],
      [
        "eey",
        "o"
      ],
      [
        "sh",
        "o"
      ],
      [
        "Ġsha",
        "q"
      ],
      [
        "mm",
        "aan"
      ],
      [
        "Ġkan",
        "s"
      ],
      [
        "rit",
        "rea"
      ],
      [
        "Ġsadd",
        "ex"
      ],
      [
        "0",
        "0"
      ],
      [
        "a",
        "h"
      ],
      [
        "a",
        "s"
      ],
      [
        "b",
        "o"
      ],
      [
        "d",
        "h"
      ],
      [
        "d",
        "is"
      ],
      [
        "e",
        "m"
      ],
      [
        "i",
        "f"
      ],
      [
        "n",
        "ka"
      ],
      [
        "n",
        "aamij"
      ],
      [
        "o",
        "n"
      ],
      [
        "u",
        "k"
      ],
      [
        "Ġ",
        "O"
      ],
      [
        "Ġ",
        "Q"
      ],
      [
        "Ġ",
        "W"
      ],
      [
        "ka",
        "d"
      ],
      [
        "ar",
        "y"
      ],
      [
        "in",
        "ta"
      ],
      [
        "ha",
        "n"
      ],
      [
        "ii",
        "da"
      ],
      [
        "Ġd",
        "ug"
      ],
      [
        "Ġa",
        "b"
      ],
      [
        "Ġa",
        "f"
      ],
      [
        "Ġm",
        "uuq"
      ],
      [
        "Ġm",
        "eel"
      ],
      [
        "Ġin",
        "ta"
      ],
      [
        "ad",
        "oo"
      ],
      [
        "Ġwax",
        "y"
      ],
      [
        "Ġda",
        "w"
      ],
      [
        "Ġy",
        "ar"
      ],
      [
        "si",
        "g"
      ],
      [
        "Ġl",
        "eh"
      ],
      [
        "il",
        "l"
      ],
      [
        "ĠS",
        "h"
      ],
      [
        "Ġmar",
        "ka"
      ],
      [
        "Ġis",
        "la"
      ],
      [
        "im",
        "id"
      ],
      [
        "Ġta",
        "ll"
      ],
      [
        "Wax",
        "ay"
      ],
      [
        "Ġil",
        "aal"
      ],
      [
        "ow",
        "ladda"
      ],
      [
        "Ġsan",
        "ad"
      ],
      [
        "Ġbar",
        "naamij"
      ],
      [
        "Ġbil",
        "aab"
      ],
      [
        "Ġbil",
        "ood"
      ],
      [
        "es",
        "si"
      ],
      [
        "Ġtar",
        "xii"
      ],
      [
        "sha",
        "da"
      ],
      [
        "Ġgu",
        "r"
      ],
      [
        "ĠE",
        "ritrea"
      ],
      [
        "Ġmag",
        "aalada"
      ],
      [
        "Ġno",
        "q"
      ],
      [
        "Ġsocd",
        "aalka"
      ],
      [
        "Ġbal",
        "se"
      ],
      [
        "edd",
        "el"
      ],
      [
        "kaa",
        "ga"
      ],
      [
        "a",
        "j"
      ],
      [
        "b",
        "aab"
      ],
      [
        "c",
        "an"
      ],
      [
        "e",
        "d"
      ],
      [
        "e",
        "g"
      ],
      [
        "e",
        "n"
      ],
      [
        "i",
        "k"
      ],
      [
        "l",
        "ee"
      ],
      [
        "m",
        "id"
      ],
      [
        "n",
        "d"
      ],
      [
        "o",
        "na"
      ],
      [
        "t",
        "u"
      ],
      [
        "aa",
        "q"
      ],
      [
        "ay",
        "d"
      ],
      [
        "oo",
        "s"
      ],
      [
        "Ġs",
        "u"
      ],
      [
        "Ġs",
        "ab"
      ],
      [
        "Ġw",
        "al"
      ],
      [
        "Ġw",
        "eli"
      ],
      [
        "Ġa",
        "ma"
      ],
      [
        "Ġay",
        "ay"
      ],
      [
        "Ġm",
        "ax"
      ],
      [
        "Ġm",
        "ada"
      ],
      [
        "Ġb",
        "an"
      ],
      [
        "iy",
        "ada"
      ],
      [
        "Ġah",
        "aa"
      ],
      [
        "Ġu",
        "la"
      ],
      [
        "Ġt",
        "aasi"
      ],
      [
        "Ġc",
        "iida"
      ],
      [
        "Ġy",
        "imid"
      ],
      [
        "kii",
        "sa"
      ],
      [
        "ĠM",
        "uq"
      ],
      [
        "ĠM",
        "ahad"
      ],
      [
        "Ġdha",
        "mmaan"
      ],
      [
        "Ġha",
        "dd"
      ],
      [
        "ab",
        "si"
      ],
      [
        "Ġdh",
        "ii"
      ],
      [
        "Ġaan",
        "an"
      ],
      [
        "aam",
        "a"
      ],
      [
        "Ġloo",
        "ga"
      ],
      [
        "Ġta",
        "hay"
      ],
      [
        "ĠG",
        "ary"
      ],
      [
        "eys",
        "o"
      ],
      [
        "Ġsan",
        "o"
      ],
      [
        "Ġnoo",
        "l"
      ],
      [
        "Ġdad",
        "ka"
      ],
      [
        "Ġ20",
        "2"
      ],
      [
        "Ġdhaq",
        "an"
      ],
      [
        "Ġiy",
        "adoo"
      ],
      [
        "Ġad",
        "eeg"
      ],
      [
        "Ġsheekay",
        "siga"
      ],
      [
        "Ġcarruur",
        "ta"
      ],
      [
        "ĠMin",
        "n"
      ],
      [
        "dis",
        "ho"
      ],
      [
        "Ġtall",
        "aab"
      ],
      [
        "ĠMuq",
        "disho"
      ],
      [
        "ĠGary",
        "aqaan"
      ],
      [
        "B",
        "C"
      ],
      [
        "b",
        "al"
      ],
      [
        "h",
        "ar"
      ],
      [
        "k",
        "aana"
      ],
      [
        "n",
        "aa"
      ],
      [
        "o",
        "d"
      ],
      [
        "q",
        "bal"
      ],
      [
        "r",
        "um"
      ],
      [
        "t",
        "een"
      ],
      [
        "â",
        "Ģ"
      ],
      [
        "Ġ",
        "-"
      ],
      [
        "Ġ",
        "F"
      ],
      [
        "ay",
        "sa"
      ],
      [
        "in",
        "e"
      ],
      [
        "in",
        "da"
      ],
      [
        "Ġs",
        "aar"
      ],
      [
        "la",
        "d"
      ],
      [
        "la",
        "n"
      ],
      [
        "ii",
        "sa"
      ],
      [
        "Ġw",
        "ad"
      ],
      [
        "Ġd",
        "uu"
      ],
      [
        "Ġa",
        "l"
      ],
      [
        "Ġm",
        "aad"
      ],
      [
        "Ġm",
        "aam"
      ],
      [
        "Ġka",
        "mid"
      ],
      [
        "Ġk",
        "or"
      ],
      [
        "Ġb",
        "ax"
      ],
      [
        "Ġb",
        "eddel"
      ],
      [
        "Ġah",
        "aan"
      ],
      [
        "Ġku",
        "l"
      ],
      [
        "Ġu",
        "ga"
      ],
      [
        "aal",
        "lo"
      ],
      [
        "Ġt",
        "aas"
      ],
      [
        "is",
        "ay"
      ],
      [
        "is",
        "ta"
      ],
      [
        "Ġx",
        "ad"
      ],
      [
        "Ġx",
        "ill"
      ],
      [
        "Ġq",
        "or"
      ],
      [
        "Ġq",
        "aar"
      ],
      [
        "ĠM",
        "essi"
      ],
      [
        "Ġl",
        "aab"
      ],
      [
        "Ġha",
        "l"
      ],
      [
        "Ġha",
        "da"
      ],
      [
        "Ġha",
        "lk"
      ],
      [
        "al",
        "ka"
      ],
      [
        "Ġdh",
        "ig"
      ],
      [
        "Ġdh",
        "ow"
      ],
      [
        "Ġaan",
        "ay"
      ],
      [
        "Ġma",
        "s"
      ],
      [
        "dd",
        "o"
      ],
      [
        "Ġjir",
        "ay"
      ],
      [
        "Wax",
        "aa"
      ],
      [
        "tii",
        "b"
      ],
      [
        "sh",
        "ee"
      ],
      [
        "ĠG",
        "inda"
      ],
      [
        "ays",
        "o"
      ],
      [
        "Ġsoc",
        "da"
      ],
      [
        "ĠSoomaal",
        "iya"
      ],
      [
        "ĠT",
        "rum"
      ],
      [
        "Ġar",
        "k"
      ],
      [
        "Ġar",
        "ag"
      ],
      [
        "Ġtar",
        "tiib"
      ],
      [
        "Ġqof",
        "ka"
      ],
      [
        "sad",
        "o"
      ],
      [
        "ĠB",
        "BC"
      ],
      [
        "Ġsid",
        "oo"
      ],
      [
        "Ġxar",
        "un"
      ],
      [
        "nad",
        "kii"
      ],
      [
        "Ġwii",
        "lka"
      ],
      [
        "Ġmaal",
        "in"
      ],
      [
        "Ġwaxy",
        "aab"
      ],
      [
        "Ġsab",
        "ab"
      ],
      [
        "Ġhadd",
        "ii"
      ],
      [
        "ĠTrum",
        "p"
      ],
      [
        ",",
        "\"\""
      ],
      [
        "C",
        "E"
      ],
      [
        "H",
        "adda"
      ],
      [
        "a",
        "i"
      ],
      [
        "b",
        "ad"
      ],
      [
        "b",
        "ur"
      ],
      [
        "b",
        "it"
      ],
      [
        "b",
        "ix"
      ],
      [
        "d",
        "uu"
      ],
      [
        "f",
        "oon"
      ],
      [
        "g",
        "ga"
      ],
      [
        "h",
        "i"
      ],
      [
        "i",
        "hii"
      ],
      [
        "k",
        "iin"
      ],
      [
        "k",
        "eed"
      ],
      [
        "m",
        "ay"
      ],
      [
        "m",
        "ka"
      ],
      [
        "m",
        "ar"
      ],
      [
        "o",
        "ta"
      ],
      [
        "r",
        "r"
      ],
      [
        "s",
        "hay"
      ],
      [
        "t",
        "ir"
      ],
      [
        "t",
        "ic"
      ],
      [
        "y",
        "a"
      ],
      [
        "y",
        "ay"
      ],
      [
        "Ġ",
        "i"
      ],
      [
        "Ġ",
        "arr"
      ],
      [
        "Ġ",
        "âĢ"
      ],
      [
        "aa",
        "h"
      ],
      [
        "aa",
        "to"
      ],
      [
        "aa",
        "kiin"
      ],
      [
        "ka",
        "m"
      ],
      [
        "ee",
        "kh"
      ],
      [
        "ar",
        "ta"
      ],
      [
        "in",
        "t"
      ],
      [
        "Ġs",
        "ar"
      ],
      [
        "Ġs",
        "al"
      ],
      [
        "Ġs",
        "aam"
      ],
      [
        "uu",
        "jin"
      ],
      [
        "Ġa",
        "w"
      ],
      [
        "Ġm",
        "uujin"
      ],
      [
        "an",
        "a"
      ],
      [
        "an",
        "i"
      ],
      [
        "Ġb",
        "uk"
      ],
      [
        "Ġin",
        "aan"
      ],
      [
        "iy",
        "aar"
      ],
      [
        "Ġah",
        "ayd"
      ],
      [
        "ga",
        "c"
      ],
      [
        "Ġt",
        "an"
      ],
      [
        "Ġt",
        "iri"
      ],
      [
        "Ġt",
        "aag"
      ],
      [
        "Ġuu",
        "san"
      ],
      [
        "Ġq",
        "ur"
      ],
      [
        "Ġq",
        "aada"
      ],
      [
        "Ġee",
        "g"
      ],
      [
        "Ġc",
        "aaf"
      ],
      [
        "Ġc",
        "absi"
      ],
      [
        "Ġc",
        "od"
      ],
      [
        "Ġh",
        "el"
      ],
      [
        "Ġl",
        "aakiin"
      ],
      [
        "Ġj",
        "aw"
      ],
      [
        "Ġdha",
        "x"
      ],
      [
        "el",
        "e"
      ],
      [
        "el",
        "l"
      ],
      [
        "ĠS",
        "t"
      ],
      [
        "ĠS",
        "ha"
      ],
      [
        "Ġdh",
        "ex"
      ],
      [
        "Ġmar",
        "kaana"
      ],
      [
        "Ġis",
        "ag"
      ],
      [
        "Ġf",
        "ur"
      ],
      [
        "Ġf",
        "arr"
      ],
      [
        "Ġma",
        "gac"
      ],
      [
        "aas",
        "ha"
      ],
      [
        "Ġg",
        "ar"
      ],
      [
        "im",
        "o"
      ],
      [
        "Ġr",
        "aac"
      ],
      [
        "Ġjir",
        "to"
      ],
      [
        "Wax",
        "a"
      ],
      [
        "Wax",
        "aan"
      ],
      [
        "ĠA",
        "l"
      ],
      [
        "tii",
        "sa"
      ],
      [
        "aala",
        "dda"
      ],
      [
        "Ġkar",
        "in"
      ],
      [
        "Ġkar",
        "aan"
      ],
      [
        "Ġqo",
        "ys"
      ],
      [
        "eys",
        "ay"
      ],
      [
        "Ġjoo",
        "jin"
      ],
      [
        "ays",
        "aa"
      ],
      [
        "es",
        "ota"
      ],
      [
        "ĠI",
        "CE"
      ],
      [
        "Ġnoo",
        "la"
      ],
      [
        "Ġdamb",
        "ayn"
      ],
      [
        "Ġ1",
        "9"
      ],
      [
        "sad",
        "ay"
      ],
      [
        "Ġkuw",
        "a"
      ],
      [
        "Ġkuw",
        "aas"
      ],
      [
        "Ġ20",
        "1"
      ],
      [
        "Ġdaa",
        "w"
      ],
      [
        "Ġdaa",
        "weyn"
      ],
      [
        "Ġsheeg",
        "tay"
      ],
      [
        "Ġyee",
        "shee"
      ],
      [
        "Ġxiriir",
        "a"
      ],
      [
        "Ġmu",
        "ddo"
      ],
      [
        "Ġam",
        "n"
      ],
      [
        "Ġeed",
        "ey"
      ],
      [
        "ĠU",
        "K"
      ],
      [
        "Ġkoo",
        "xda"
      ],
      [
        "ilm",
        "aam"
      ],
      [
        "Ġfar",
        "ii"
      ],
      [
        "Ġkans",
        "arka"
      ],
      [
        "ĠQ",
        "ur"
      ],
      [
        "Ġaf",
        "duu"
      ],
      [
        "Ġsu",
        "gay"
      ],
      [
        "Ġdhii",
        "gga"
      ],
      [
        "Ġduu",
        "ll"
      ],
      [
        "Ġhalk",
        "aasi"
      ],
      [
        "Ġwaxyaab",
        "aha"
      ],
      [
        "bit",
        "aalka"
      ],
      [
        "ĠâĢ",
        "ĵ"
      ],
      [
        "Ġbuk",
        "aan"
      ],
      [
        "Ġcaaf",
        "imaad"
      ],
      [
        "Ġjaw",
        "aab"
      ],
      [
        "Ġafduu",
        "b"
      ],
      [
        "K",
        "a"
      ],
      [
        "M",
        "ahad"
      ],
      [
        "S",
        "h"
      ],
      [
        "T",
        "o"
      ],
      [
        "W",
        "uxuu"
      ],
      [
        "a",
        "p"
      ],
      [
        "b",
        "ada"
      ],
      [
        "d",
        "ii"
      ],
      [
        "d",
        "aama"
      ],
      [
        "e",
        "t"
      ],
      [
        "e",
        "w"
      ],
      [
        "e",
        "mb"
      ],
      [
        "g",
        "el"
      ],
      [
        "h",
        "u"
      ],
      [
        "h",
        "or"
      ],
      [
        "i",
        "ka"
      ],
      [
        "i",
        "gay"
      ],
      [
        "j",
        "ab"
      ],
      [
        "l",
        "aam"
      ],
      [
        "n",
        "ug"
      ],
      [
        "n",
        "jab"
      ],
      [
        "p",
        "ol"
      ],
      [
        "r",
        "ig"
      ],
      [
        "s",
        "laam"
      ],
      [
        "x",
        "weyn"
      ],
      [
        "y",
        "o"
      ],
      [
        "Ġ",
        "'"
      ],
      [
        "Ġ",
        "P"
      ],
      [
        "aa",
        "tay"
      ],
      [
        "da",
        "rr"
      ],
      [
        "in",
        "ayo"
      ],
      [
        "Ġs",
        "af"
      ],
      [
        "la",
        "da"
      ],
      [
        "la",
        "ha"
      ],
      [
        "Ġw",
        "aan"
      ],
      [
        "Ġd",
        "iinta"
      ],
      [
        "Ġd",
        "if"
      ],
      [
        "Ġd",
        "owladda"
      ],
      [
        "Ġm",
        "al"
      ],
      [
        "Ġka",
        "sta"
      ],
      [
        "Ġka",
        "hor"
      ],
      [
        "Ġla",
        "c"
      ],
      [
        "Ġla",
        "ba"
      ],
      [
        "Ġb",
        "uu"
      ],
      [
        "Ġb",
        "ur"
      ],
      [
        "Ġb",
        "ix"
      ],
      [
        "Ġin",
        "taa"
      ],
      [
        "iy",
        "ey"
      ],
      [
        "Ġah",
        "ayn"
      ],
      [
        "ta",
        "g"
      ],
      [
        "ga",
        "lay"
      ],
      [
        "ey",
        "san"
      ],
      [
        "aal",
        "o"
      ],
      [
        "aal",
        "id"
      ],
      [
        "Ġt",
        "ax"
      ],
      [
        "Ġt",
        "ob"
      ],
      [
        "Ġt",
        "aallo"
      ],
      [
        "Ġt",
        "ele"
      ],
      [
        "Ġt",
        "ilmaam"
      ],
      [
        "is",
        "hii"
      ],
      [
        "Ġx",
        "ab"
      ],
      [
        "Ġx",
        "aaladda"
      ],
      [
        "Ġda",
        "c"
      ],
      [
        "id",
        "hi"
      ],
      [
        "Ġc",
        "us"
      ],
      [
        "Ġc",
        "ul"
      ],
      [
        "Ġc",
        "ilm"
      ],
      [
        "Ġy",
        "aab"
      ],
      [
        "Ġy",
        "imaad"
      ],
      [
        "Ġy",
        "aqaan"
      ],
      [
        "Ġy",
        "aalla"
      ],
      [
        "Ġh",
        "ub"
      ],
      [
        "Ġh",
        "oos"
      ],
      [
        "Ġsh",
        "ir"
      ],
      [
        "na",
        "ha"
      ],
      [
        "aab",
        "an"
      ],
      [
        "aab",
        "ada"
      ],
      [
        "Ġdha",
        "b"
      ],
      [
        "Ġdha",
        "w"
      ],
      [
        "Ġdha",
        "shay"
      ],
      [
        "Ġha",
        "njab"
      ],
      [
        "ab",
        "a"
      ],
      [
        "el",
        "iyay"
      ],
      [
        "Ġis",
        "ku"
      ],
      [
        "Ġis",
        "bitaalka"
      ],
      [
        "Ġf",
        "ud"
      ],
      [
        "Ġma",
        "c"
      ],
      [
        "Ġg",
        "obo"
      ],
      [
        "dd",
        "u"
      ],
      [
        "Ġr",
        "aj"
      ],
      [
        "oon",
        "ka"
      ],
      [
        "Ġta",
        "lee"
      ],
      [
        "Ġjir",
        "ka"
      ],
      [
        "ood",
        "u"
      ],
      [
        "Ġhor",
        "tag"
      ],
      [
        "ĠA",
        "d"
      ],
      [
        "ĠA",
        "f"
      ],
      [
        "Ġwaa",
        "xda"
      ],
      [
        "Ġkar",
        "o"
      ],
      [
        "Ġkar",
        "taa"
      ],
      [
        "eys",
        "aa"
      ],
      [
        "arc",
        "ia"
      ],
      [
        "ĠI",
        "slaam"
      ],
      [
        "ĠT",
        "ik"
      ],
      [
        "Ġdoon",
        "o"
      ],
      [
        "Ġnoo",
        "can"
      ],
      [
        "ĠC",
        "har"
      ],
      [
        "Ġwuxuu",
        "na"
      ],
      [
        "Ġdamb",
        "e"
      ],
      [
        "ea",
        "pol"
      ],
      [
        "Ġdar",
        "ee"
      ],
      [
        "uq",
        "uuq"
      ],
      [
        "Ġqab",
        "an"
      ],
      [
        "Ġxar",
        "u"
      ],
      [
        "Ġga",
        "lay"
      ],
      [
        "aaf",
        "ur"
      ],
      [
        "Ġhadda",
        "na"
      ],
      [
        "Ġsheeg",
        "een"
      ],
      [
        "Ġjoog",
        "o"
      ],
      [
        "ac",
        "ter"
      ],
      [
        "Ġdhac",
        "ay"
      ],
      [
        "Ġog",
        "aan"
      ],
      [
        "Ġkoo",
        "x"
      ],
      [
        "Ġqaad",
        "i"
      ],
      [
        "Ġkans",
        "ar"
      ],
      [
        "ĠO",
        "r"
      ],
      [
        "Ġab",
        "uur"
      ],
      [
        "Ġilaal",
        "iyo"
      ],
      [
        "Ġsanad",
        "kii"
      ],
      [
        "Ġbarnaamij",
        "ka"
      ],
      [
        "Ġnoq",
        "day"
      ],
      [
        "ona",
        "l"
      ],
      [
        "aaq",
        "a"
      ],
      [
        "Ġban",
        "dh"
      ],
      [
        "Ġciida",
        "nka"
      ],
      [
        "ĠMinn",
        "eapol"
      ],
      [
        "Ġal",
        "baab"
      ],
      [
        "Ġhada",
        "l"
      ],
      [
        "Ġdhow",
        "r"
      ],
      [
        "Ġmas",
        "aafur"
      ],
      [
        "Ġark",
        "o"
      ],
      [
        "Ġxarun",
        "ta"
      ],
      [
        "Ġsaam",
        "eyn"
      ],
      [
        "Ġaw",
        "ood"
      ],
      [
        "Ġisag",
        "oo"
      ],
      [
        "Ġraac",
        "iyay"
      ],
      [
        "Ġamn",
        "i"
      ],
      [
        "nug",
        "yada"
      ],
      [
        "xweyn",
        "e"
      ],
      [
        "Ġdif",
        "aac"
      ],
      [
        "Ġbur",
        "bur"
      ],
      [
        "Ġtele",
        "foon"
      ],
      [
        "Ġcus",
        "ub"
      ],
      [
        "Ġfud",
        "ud"
      ],
      [
        "Ġgobo",
        "lka"
      ],
      [
        "ĠChar",
        "acter"
      ],
      [
        "ĠMinneapol",
        "is"
      ],
      [
        ")",
        ","
      ],
      [
        ".",
        "''"
      ],
      [
        "D",
        "a"
      ],
      [
        "D",
        "ha"
      ],
      [
        "G",
        "P"
      ],
      [
        "G",
        "arcia"
      ],
      [
        "H",
        "a"
      ],
      [
        "I",
        "n"
      ],
      [
        "I",
        "sa"
      ],
      [
        "K",
        "ad"
      ],
      [
        "M",
        "us"
      ],
      [
        "Q",
        "o"
      ],
      [
        "S",
        "i"
      ],
      [
        "S",
        "an"
      ],
      [
        "S",
        "oomaal"
      ],
      [
        "U",
        "gu"
      ],
      [
        "W",
        "aa"
      ],
      [
        "a",
        "v"
      ],
      [
        "a",
        "la"
      ],
      [
        "a",
        "kam"
      ],
      [
        "b",
        "i"
      ],
      [
        "b",
        "ee"
      ],
      [
        "b",
        "an"
      ],
      [
        "b",
        "aar"
      ],
      [
        "d",
        "b"
      ],
      [
        "d",
        "ir"
      ],
      [
        "d",
        "il"
      ],
      [
        "d",
        "oonka"
      ],
      [
        "e",
        "k"
      ],
      [
        "f",
        "an"
      ],
      [
        "g",
        "aad"
      ],
      [
        "h",
        "aasi"
      ],
      [
        "k",
        "uu"
      ],
      [
        "k",
        "een"
      ],
      [
        "k",
        "ood"
      ],
      [
        "k",
        "eeda"
      ],
      [
        "l",
        "i"
      ],
      [
        "l",
        "in"
      ],
      [
        "l",
        "iga"
      ],
      [
        "m",
        "in"
      ],
      [
        "m",
        "ood"
      ],
      [
        "m",
        "alka"
      ],
      [
        "n",
        "u"
      ],
      [
        "n",
        "aan"
      ],
      [
        "n",
        "et"
      ],
      [
        "o",
        "lka"
      ],
      [
        "r",
        "ee"
      ],
      [
        "r",
        "ika"
      ],
      [
        "s",
        "ka"
      ],
      [
        "t",
        "ig"
      ],
      [
        "t",
        "ida"
      ],
      [
        "t",
        "oob"
      ],
      [
        "u",
        "sho"
      ],
      [
        "y",
        "aha"
      ],
      [
        "y",
        "adan"
      ],
      [
        "Ġ",
        ","
      ],
      [
        "Ġ",
        "3"
      ],
      [
        "Ġ",
        "7"
      ],
      [
        "Ġ",
        "N"
      ],
      [
        "Ġ",
        "X"
      ],
      [
        "Ġ",
        "o"
      ],
      [
        "Ġ",
        "aada"
      ],
      [
        "Ġ",
        "''"
      ],
      [
        "Ġ",
        "Waxay"
      ],
      [
        "aa",
        "w"
      ],
      [
        "aa",
        "xii"
      ],
      [
        "ay",
        "san"
      ],
      [
        "ay",
        "kanka"
      ],
      [
        "oo",
        "g"
      ],
      [
        "oo",
        "la"
      ],
      [
        "da",
        "ha"
      ],
      [
        "ar",
        "uur"
      ],
      [
        "in",
        "g"
      ],
      [
        "in",
        "ayaan"
      ],
      [
        "Ġs",
        "ir"
      ],
      [
        "Ġs",
        "ayn"
      ],
      [
        "Ġs",
        "aaxii"
      ],
      [
        "la",
        "ddu"
      ],
      [
        "ii",
        "d"
      ],
      [
        "Ġw",
        "a"
      ],
      [
        "Ġw",
        "ay"
      ],
      [
        "Ġw",
        "ey"
      ],
      [
        "Ġw",
        "eer"
      ],
      [
        "Ġw",
        "aalid"
      ],
      [
        "uu",
        "l"
      ],
      [
        "Ġd",
        "oo"
      ],
      [
        "Ġd",
        "ow"
      ],
      [
        "Ġd",
        "iyaar"
      ],
      [
        "Ġa",
        "qbal"
      ],
      [
        "Ġm",
        "ee"
      ],
      [
        "Ġm",
        "ana"
      ],
      [
        "aan",
        "ta"
      ],
      [
        "Ġka",
        "c"
      ],
      [
        "Ġka",
        "s"
      ],
      [
        "Ġka",
        "ma"
      ],
      [
        "Ġk",
        "een"
      ],
      [
        "Ġk",
        "el"
      ],
      [
        "Ġla",
        "f"
      ],
      [
        "Ġla",
        "hay"
      ],
      [
        "Ġla",
        "ma"
      ],
      [
        "Ġla",
        "soo"
      ],
      [
        "Ġb",
        "ul"
      ],
      [
        "Ġin",
        "ka"
      ],
      [
        "iy",
        "aha"
      ],
      [
        "iy",
        "aas"
      ],
      [
        "iy",
        "adda"
      ],
      [
        "Ġah",
        "i"
      ],
      [
        "ta",
        "qbal"
      ],
      [
        "ad",
        "h"
      ],
      [
        "ad",
        "o"
      ],
      [
        "ad",
        "ii"
      ],
      [
        "Ġu",
        "soo"
      ],
      [
        "Ġu",
        "nugyada"
      ],
      [
        "ey",
        "b"
      ],
      [
        "ey",
        "ga"
      ],
      [
        "ey",
        "sa"
      ],
      [
        "ada",
        "xweyne"
      ],
      [
        "aal",
        "e"
      ],
      [
        "aal",
        "ku"
      ],
      [
        "Ġt",
        "ij"
      ],
      [
        "Ġt",
        "aalla"
      ],
      [
        "Ġt",
        "oos"
      ],
      [
        "Ġx",
        "an"
      ],
      [
        "Ġx",
        "or"
      ],
      [
        "Ġx",
        "eer"
      ],
      [
        "Ġx",
        "uquuq"
      ],
      [
        "aad",
        "ay"
      ],
      [
        "Ġq",
        "ay"
      ],
      [
        "Ġq",
        "ar"
      ],
      [
        "Ġq",
        "aatay"
      ],
      [
        "Ġq",
        "eyb"
      ],
      [
        "Ġc",
        "aala"
      ],
      [
        "Ġc",
        "aruur"
      ],
      [
        "ĠM",
        "ex"
      ],
      [
        "ĠM",
        "adaxweyne"
      ],
      [
        "Ġsh",
        "arr"
      ],
      [
        "Ġl",
        "ug"
      ],
      [
        "Ġl",
        "uuq"
      ],
      [
        "il",
        "aan"
      ],
      [
        "Ġj",
        "eer"
      ],
      [
        "Ġha",
        "b"
      ],
      [
        "Ġha",
        "g"
      ],
      [
        "ĠS",
        "hiin"
      ],
      [
        "ĠS",
        "ew"
      ],
      [
        "Ġdh",
        "ib"
      ],
      [
        "Ġdh",
        "eer"
      ],
      [
        "Ġdh",
        "aaf"
      ],
      [
        "Ġdh",
        "igay"
      ],
      [
        "Ġis",
        "u"
      ],
      [
        "Ġis",
        "ka"
      ],
      [
        "Ġis",
        "aga"
      ],
      [
        "Ġis",
        "tic"
      ],
      [
        "eyn",
        "ayay"
      ],
      [
        "Ġf",
        "adh"
      ],
      [
        "Ġf",
        "ilaan"
      ],
      [
        "ur",
        "ka"
      ],
      [
        "Ġr",
        "aad"
      ],
      [
        "Ġr",
        "og"
      ],
      [
        "Ġta",
        "g"
      ],
      [
        "Ġta",
        "l"
      ],
      [
        "Ġta",
        "lo"
      ],
      [
        "Ġjir",
        "a"
      ],
      [
        "Ġil",
        "ma"
      ],
      [
        "Ġwaa",
        "weyn"
      ],
      [
        "ĠMar",
        "aykanka"
      ],
      [
        "oc",
        "d"
      ],
      [
        "ĠG",
        "rea"
      ],
      [
        "Ġsan",
        "nadkii"
      ],
      [
        "Ġjoo",
        "ga"
      ],
      [
        "ays",
        "ay"
      ],
      [
        "Ġbar",
        "ta"
      ],
      [
        "ĠD",
        "r"
      ],
      [
        "ĠD",
        "ad"
      ],
      [
        "ĠI",
        "n"
      ],
      [
        "iir",
        "rig"
      ],
      [
        "Ġdoon",
        "ka"
      ],
      [
        "Ġdoon",
        "aan"
      ],
      [
        "ĠC",
        "hat"
      ],
      [
        "ic",
        "o"
      ],
      [
        "mo",
        "nd"
      ],
      [
        "Ġ1",
        "3"
      ],
      [
        "Ġwar",
        "ee"
      ],
      [
        "Ġwar",
        "bix"
      ],
      [
        "Ġdar",
        "r"
      ],
      [
        "ooy",
        "ad"
      ],
      [
        "ĠK",
        "olka"
      ],
      [
        "Ġsam",
        "ayn"
      ],
      [
        "Ġsam",
        "eeyay"
      ],
      [
        "eh",
        "r"
      ],
      [
        "lk",
        "ooda"
      ],
      [
        "Ġga",
        "can"
      ],
      [
        "Ġgu",
        "db"
      ],
      [
        "Ġna",
        "f"
      ],
      [
        "iis",
        "u"
      ],
      [
        "iis",
        "ka"
      ],
      [
        "iis",
        "adda"
      ],
      [
        "Ġyee",
        "lan"
      ],
      [
        "Ġjoog",
        "aan"
      ],
      [
        "ter",
        "net"
      ],
      [
        "ĠR",
        "eg"
      ],
      [
        "Ġiy",
        "ada"
      ],
      [
        "oob",
        "ay"
      ],
      [
        "oob",
        "aha"
      ],
      [
        "Ġbaa",
        "h"
      ],
      [
        "Ġbaa",
        "han"
      ],
      [
        "Ġmag",
        "an"
      ],
      [
        "Ġno",
        "lo"
      ],
      [
        "ĠL",
        "e"
      ],
      [
        "Ġmaal",
        "mood"
      ],
      [
        "Ġtir",
        "san"
      ],
      [
        "ooyin",
        "ka"
      ],
      [
        "dha",
        "q"
      ],
      [
        "Ġkadib",
        "na"
      ],
      [
        "Ġqaad",
        "ay"
      ],
      [
        "Ġhalka",
        "n"
      ],
      [
        "Ġshaq",
        "o"
      ],
      [
        "em",
        "ia"
      ],
      [
        "ĠW",
        "uxuu"
      ],
      [
        "Ġdug",
        "siga"
      ],
      [
        "Ġmuuq",
        "a"
      ],
      [
        "Ġdaw",
        "ladda"
      ],
      [
        "sig",
        "ii"
      ],
      [
        "ĠSh",
        "eekh"
      ],
      [
        "ĠSh",
        "aaban"
      ],
      [
        "Ġbilaab",
        "ay"
      ],
      [
        "Ġtarxii",
        "lay"
      ],
      [
        "Ġgur",
        "ig"
      ],
      [
        "Ġnoq",
        "on"
      ],
      [
        "ed",
        "er"
      ],
      [
        "Ġwal",
        "ba"
      ],
      [
        "Ġmax",
        "aa"
      ],
      [
        "Ġmada",
        "x"
      ],
      [
        "Ġciida",
        "m"
      ],
      [
        "Ġ202",
        "3"
      ],
      [
        "ĠMinn",
        "esota"
      ],
      [
        "Ġsaar",
        "ay"
      ],
      [
        "Ġmaad",
        "daama"
      ],
      [
        "Ġmaam",
        "usho"
      ],
      [
        "Ġkor",
        "e"
      ],
      [
        "keed",
        "u"
      ],
      [
        "Ġsar",
        "e"
      ],
      [
        "Ġqaada",
        "n"
      ],
      [
        "ĠSt",
        "ree"
      ],
      [
        "ĠSha",
        "baab"
      ],
      [
        "Ġfarr",
        "iin"
      ],
      [
        "Ġ19",
        "9"
      ],
      [
        "Ġsugay",
        "ay"
      ],
      [
        "Ġduull",
        "imaad"
      ],
      [
        "Ġafduub",
        "ka"
      ],
      [
        "Ġkasta",
        "ba"
      ],
      [
        "Ġbuu",
        "xda"
      ],
      [
        "Ġtob",
        "an"
      ],
      [
        "Ġxab",
        "siga"
      ],
      [
        "Ġdac",
        "w"
      ],
      [
        "Ġcilm",
        "i"
      ],
      [
        "Ġshir",
        "ka"
      ],
      [
        "Ġmac",
        "malka"
      ],
      [
        "Ġtalee",
        "fan"
      ],
      [
        "ĠAd",
        "em"
      ],
      [
        "ĠAf",
        "rika"
      ],
      [
        "ĠIslaam",
        "ka"
      ],
      [
        "ĠOr",
        "mond"
      ],
      [
        "Ġabuur",
        "tay"
      ],
      [
        "Ġbandh",
        "ig"
      ],
      [
        "Ġawood",
        "in"
      ],
      [
        "Ġtelefoon",
        "kaaga"
      ],
      [
        "Da",
        "weyn"
      ],
      [
        "GP",
        "T"
      ],
      [
        "Ha",
        "se"
      ],
      [
        "Kad",
        "ib"
      ],
      [
        "San",
        "nadkii"
      ],
      [
        "baar",
        "ista"
      ],
      [
        "dir",
        "is"
      ],
      [
        "gaad",
        "h"
      ],
      [
        "keen",
        "na"
      ],
      [
        "oola",
        "j"
      ],
      [
        "Ġsir",
        "doonka"
      ],
      [
        "Ġsayn",
        "is"
      ],
      [
        "Ġkel",
        "iya"
      ],
      [
        "Ġbul",
        "shada"
      ],
      [
        "Ġtij",
        "aabada"
      ],
      [
        "Ġcaala",
        "mka"
      ],
      [
        "ĠMex",
        "ico"
      ],
      [
        "Ġsharr",
        "ax"
      ],
      [
        "ĠShiin",
        "aha"
      ],
      [
        "ĠSew",
        "ell"
      ],
      [
        "ĠGrea",
        "t"
      ],
      [
        "ĠChat",
        "GPT"
      ],
      [
        "ĠKolka",
        "ta"
      ],
      [
        "ĠReg",
        "ehr"
      ],
      [
        "ĠStree",
        "t"
      ],
      [
        "\"",
        "''"
      ],
      [
        "'",
        "d"
      ],
      [
        "A",
        "T"
      ],
      [
        "A",
        "f"
      ],
      [
        "B",
        "ishii"
      ],
      [
        "D",
        "h"
      ],
      [
        "D",
        "r"
      ],
      [
        "D",
        "ar"
      ],
      [
        "D",
        "owladda"
      ],
      [
        "G",
        "O"
      ],
      [
        "H",
        "or"
      ],
      [
        "I",
        "s"
      ],
      [
        "I",
        "nka"
      ],
      [
        "I",
        "diris"
      ],
      [
        "L",
        "i"
      ],
      [
        "L",
        "if"
      ],
      [
        "M",
        "a"
      ],
      [
        "M",
        "essi"
      ],
      [
        "N",
        "A"
      ],
      [
        "Q",
        "aab"
      ],
      [
        "S",
        "ocd"
      ],
      [
        "T",
        "an"
      ],
      [
        "T",
        "ani"
      ],
      [
        "W",
        "aan"
      ],
      [
        "X",
        "ar"
      ],
      [
        "a",
        "t"
      ],
      [
        "a",
        "sh"
      ],
      [
        "a",
        "ul"
      ],
      [
        "a",
        "shada"
      ],
      [
        "b",
        "aad"
      ],
      [
        "b",
        "er"
      ],
      [
        "b",
        "eddel"
      ],
      [
        "b",
        "arta"
      ],
      [
        "c",
        "eyn"
      ],
      [
        "d",
        "aasi"
      ],
      [
        "d",
        "iya"
      ],
      [
        "d",
        "ub"
      ],
      [
        "e",
        "gay"
      ],
      [
        "e",
        "bi"
      ],
      [
        "f",
        "ur"
      ],
      [
        "g",
        "e"
      ],
      [
        "g",
        "h"
      ],
      [
        "g",
        "ax"
      ],
      [
        "h",
        "r"
      ],
      [
        "h",
        "aas"
      ],
      [
        "i",
        "am"
      ],
      [
        "i",
        "lad"
      ],
      [
        "j",
        "ee"
      ],
      [
        "j",
        "ir"
      ],
      [
        "k",
        "r"
      ],
      [
        "k",
        "ha"
      ],
      [
        "k",
        "aas"
      ],
      [
        "k",
        "oon"
      ],
      [
        "k",
        "aasi"
      ],
      [
        "k",
        "toob"
      ],
      [
        "k",
        "eyga"
      ],
      [
        "l",
        "s"
      ],
      [
        "l",
        "y"
      ],
      [
        "l",
        "im"
      ],
      [
        "m",
        "i"
      ],
      [
        "m",
        "aad"
      ],
      [
        "m",
        "san"
      ],
      [
        "m",
        "adda"
      ],
      [
        "m",
        "ayn"
      ],
      [
        "m",
        "eel"
      ],
      [
        "m",
        "ihii"
      ],
      [
        "m",
        "iid"
      ],
      [
        "m",
        "iyaha"
      ],
      [
        "n",
        "ay"
      ],
      [
        "n",
        "ta"
      ],
      [
        "n",
        "kii"
      ],
      [
        "n",
        "oolaj"
      ],
      [
        "o",
        "ur"
      ],
      [
        "o",
        "dd"
      ],
      [
        "p",
        "h"
      ],
      [
        "p",
        "p"
      ],
      [
        "q",
        "an"
      ],
      [
        "r",
        "g"
      ],
      [
        "r",
        "aan"
      ],
      [
        "r",
        "is"
      ],
      [
        "r",
        "og"
      ],
      [
        "r",
        "eeyay"
      ],
      [
        "r",
        "aac"
      ],
      [
        "s",
        "us"
      ],
      [
        "s",
        "iyada"
      ],
      [
        "s",
        "iiska"
      ],
      [
        "t",
        "oo"
      ],
      [
        "t",
        "ee"
      ],
      [
        "t",
        "ar"
      ],
      [
        "t",
        "aan"
      ],
      [
        "t",
        "aas"
      ],
      [
        "t",
        "aada"
      ],
      [
        "u",
        "t"
      ],
      [
        "u",
        "w"
      ],
      [
        "u",
        "ka"
      ],
      [
        "x",
        "ad"
      ],
      [
        "y",
        "ar"
      ],
      [
        "y",
        "een"
      ],
      [
        "Ġ",
        "."
      ],
      [
        "Ġ",
        "4"
      ],
      [
        "Ġ",
        "9"
      ],
      [
        "Ġ",
        "Y"
      ],
      [
        "Ġ",
        "im"
      ],
      [
        "Ġ",
        "aala"
      ],
      [
        "Ġ",
        "aag"
      ],
      [
        "Ġ",
        "Waxa"
      ],
      [
        "Ġ",
        "ek"
      ],
      [
        "aa",
        "x"
      ],
      [
        "aa",
        "y"
      ],
      [
        "aa",
        "gay"
      ],
      [
        "aa",
        "tan"
      ],
      [
        "ay",
        "aas"
      ],
      [
        "oo",
        "l"
      ],
      [
        "oo",
        "miyaha"
      ],
      [
        "da",
        "g"
      ],
      [
        "da",
        "n"
      ],
      [
        "ar",
        "an"
      ],
      [
        "ar",
        "tay"
      ],
      [
        "in",
        "a"
      ],
      [
        "in",
        "i"
      ],
      [
        "in",
        "tan"
      ],
      [
        "in",
        "diya"
      ],
      [
        "Ġs",
        "ax"
      ],
      [
        "Ġs",
        "aab"
      ],
      [
        "Ġs",
        "uur"
      ],
      [
        "la",
        "tay"
      ],
      [
        "la",
        "to"
      ],
      [
        "ii",
        "c"
      ],
      [
        "ii",
        "l"
      ],
      [
        "ii",
        "q"
      ],
      [
        "ii",
        "ma"
      ],
      [
        "ii",
        "bo"
      ],
      [
        "ii",
        "mka"
      ],
      [
        "Ġw",
        "an"
      ],
      [
        "Ġw",
        "aana"
      ],
      [
        "Ġw",
        "aq"
      ],
      [
        "Ġw",
        "ix"
      ],
      [
        "Ġw",
        "aj"
      ],
      [
        "Ġw",
        "ayd"
      ],
      [
        "uu",
        "d"
      ],
      [
        "uu",
        "n"
      ],
      [
        "Ġd",
        "ii"
      ],
      [
        "Ġd",
        "ir"
      ],
      [
        "Ġd",
        "il"
      ],
      [
        "Ġd",
        "ood"
      ],
      [
        "Ġd",
        "emb"
      ],
      [
        "Ġa",
        "j"
      ],
      [
        "Ġa",
        "s"
      ],
      [
        "Ġa",
        "dag"
      ],
      [
        "Ġay",
        "nu"
      ],
      [
        "Ġm",
        "iy"
      ],
      [
        "Ġm",
        "ur"
      ],
      [
        "Ġm",
        "us"
      ],
      [
        "Ġka",
        "dd"
      ],
      [
        "Ġka",
        "soo"
      ],
      [
        "Ġka",
        "ls"
      ],
      [
        "Ġk",
        "uu"
      ],
      [
        "Ġk",
        "ir"
      ],
      [
        "Ġk",
        "iis"
      ],
      [
        "Ġk",
        "oob"
      ],
      [
        "an",
        "ac"
      ],
      [
        "an",
        "iisadda"
      ],
      [
        "Ġla",
        "g"
      ],
      [
        "Ġla",
        "la"
      ],
      [
        "Ġla",
        "bo"
      ],
      [
        "Ġb",
        "oo"
      ],
      [
        "Ġb",
        "ad"
      ],
      [
        "Ġb",
        "aab"
      ],
      [
        "Ġb",
        "aar"
      ],
      [
        "Ġb",
        "ood"
      ],
      [
        "Ġb",
        "aq"
      ],
      [
        "Ġb",
        "ishii"
      ],
      [
        "Ġin",
        "dha"
      ],
      [
        "Ġin",
        "ternet"
      ],
      [
        "Ġin",
        "taas"
      ],
      [
        "iy",
        "e"
      ],
      [
        "iy",
        "aad"
      ],
      [
        "Ġah",
        "ey"
      ],
      [
        "Ġoo",
        "gay"
      ],
      [
        "ga",
        "gax"
      ],
      [
        "Ġu",
        "gaadh"
      ],
      [
        "Ġwax",
        "aad"
      ],
      [
        "Ġt",
        "u"
      ],
      [
        "Ġt",
        "uur"
      ],
      [
        "Ġt",
        "ik"
      ],
      [
        "Ġt",
        "idhi"
      ],
      [
        "Ġt",
        "egay"
      ],
      [
        "Ġuu",
        "n"
      ],
      [
        "Ġx",
        "id"
      ],
      [
        "Ġx",
        "og"
      ],
      [
        "Ġx",
        "un"
      ],
      [
        "Ġx",
        "as"
      ],
      [
        "Ġx",
        "absi"
      ],
      [
        "Ġx",
        "akam"
      ],
      [
        "Ġx",
        "oog"
      ],
      [
        "aad",
        "da"
      ],
      [
        "aad",
        "een"
      ],
      [
        "gu",
        "dub"
      ],
      [
        "Ġq",
        "al"
      ],
      [
        "Ġq",
        "ala"
      ],
      [
        "Ġq",
        "iyaas"
      ],
      [
        "Ġda",
        "l"
      ],
      [
        "Ġda",
        "weyn"
      ],
      [
        "Ġda",
        "bee"
      ],
      [
        "id",
        "aam"
      ],
      [
        "Ġc",
        "is"
      ],
      [
        "Ġc",
        "aab"
      ],
      [
        "Ġc",
        "el"
      ],
      [
        "Ġc",
        "aasi"
      ],
      [
        "Ġc",
        "un"
      ],
      [
        "Ġc",
        "aanka"
      ],
      [
        "Ġc",
        "ud"
      ],
      [
        "Ġc",
        "add"
      ],
      [
        "Ġc",
        "iyaar"
      ],
      [
        "Ġy",
        "idhi"
      ],
      [
        "kii",
        "s"
      ],
      [
        "ĠM",
        "o"
      ],
      [
        "ĠM",
        "id"
      ],
      [
        "ĠM",
        "iam"
      ],
      [
        "Ġh",
        "e"
      ],
      [
        "Ġh",
        "ay"
      ],
      [
        "Ġh",
        "eer"
      ],
      [
        "Ġh",
        "eys"
      ],
      [
        "Ġh",
        "og"
      ],
      [
        "Ġh",
        "ayay"
      ],
      [
        "Ġh",
        "eli"
      ],
      [
        "Ġh",
        "aatan"
      ],
      [
        "Ġl",
        "un"
      ],
      [
        "Ġl",
        "ix"
      ],
      [
        "Ġl",
        "eeda"
      ],
      [
        "il",
        "ka"
      ],
      [
        "Ġj",
        "aa"
      ],
      [
        "Ġj",
        "ii"
      ],
      [
        "Ġj",
        "eed"
      ],
      [
        "Ġj",
        "eeda"
      ],
      [
        "na",
        "l"
      ],
      [
        "na",
        "hay"
      ],
      [
        "aab",
        "ay"
      ],
      [
        "Ġdha",
        "lay"
      ],
      [
        "Ġdha",
        "lee"
      ],
      [
        "Ġdha",
        "latay"
      ],
      [
        "Ġha",
        "se"
      ],
      [
        "ab",
        "ad"
      ],
      [
        "al",
        "lo"
      ],
      [
        "el",
        "ona"
      ],
      [
        "or",
        "ta"
      ],
      [
        "ĠS",
        "iyaad"
      ],
      [
        "Ġdh",
        "u"
      ],
      [
        "Ġdh",
        "im"
      ],
      [
        "Ġdh",
        "isay"
      ],
      [
        "Ġdh",
        "iirrig"
      ],
      [
        "Ġmar",
        "inta"
      ],
      [
        "\"\"",
        ","
      ],
      [
        "Ġis",
        "oo"
      ],
      [
        "Ġis",
        "dil"
      ],
      [
        "Ġis",
        "kuu"
      ],
      [
        "Ġis",
        "miid"
      ],
      [
        "aam",
        "in"
      ],
      [
        "aam",
        "ac"
      ],
      [
        "gay",
        "a"
      ],
      [
        "sa",
        "min"
      ],
      [
        "san",
        "aa"
      ],
      [
        "san",
        "ayn"
      ],
      [
        "san",
        "ayay"
      ],
      [
        "san",
        "ayaa"
      ],
      [
        "hay",
        "een"
      ],
      [
        "hay",
        "aga"
      ],
      [
        "Ġf",
        "iic"
      ],
      [
        "aar",
        "ka"
      ],
      [
        "to",
        "y"
      ],
      [
        "Ġg",
        "eeyay"
      ],
      [
        "Ġg",
        "uul"
      ],
      [
        "Ġg",
        "oobaha"
      ],
      [
        "Ġg",
        "ebi"
      ],
      [
        "Ġg",
        "anac"
      ],
      [
        "im",
        "ada"
      ],
      [
        "dd",
        "ay"
      ],
      [
        "Ġr",
        "ab"
      ],
      [
        "oon",
        "fur"
      ],
      [
        "Ġn",
        "idaam"
      ],
      [
        "Ġta",
        "b"
      ],
      [
        "Ġta",
        "hr"
      ],
      [
        "Ġta",
        "kha"
      ],
      [
        "er",
        "i"
      ],
      [
        "eey",
        "een"
      ],
      [
        "Ġwaxay",
        "na"
      ],
      [
        "Ġjir",
        "o"
      ],
      [
        "Ġjir",
        "ta"
      ],
      [
        "Ġhor",
        "reeyay"
      ],
      [
        "ba",
        "se"
      ],
      [
        "ba",
        "kad"
      ],
      [
        "le",
        "ge"
      ],
      [
        "ĠA",
        "I"
      ],
      [
        "ĠA",
        "m"
      ],
      [
        "tii",
        "j"
      ],
      [
        "maal",
        "ka"
      ],
      [
        "ob",
        "aad"
      ],
      [
        "sh",
        "iisa"
      ],
      [
        "it",
        "aanka"
      ],
      [
        "lo",
        "w"
      ],
      [
        "Ġkar",
        "iimka"
      ],
      [
        "ow",
        "do"
      ],
      [
        "Ġaad",
        "in"
      ],
      [
        "Ġaad",
        "aanka"
      ],
      [
        "arc",
        "iga"
      ],
      [
        "arc",
        "elona"
      ],
      [
        "Ġsan",
        "nad"
      ],
      [
        "Ġkale",
        "na"
      ],
      [
        "ug",
        "o"
      ],
      [
        "ays",
        "tay"
      ],
      [
        "Ġbar",
        "aha"
      ],
      [
        "Ġbar",
        "tiisa"
      ],
      [
        "ĠD",
        "owladda"
      ],
      [
        "ĠD",
        "onal"
      ],
      [
        "ĠD",
        "NA"
      ],
      [
        "Ġbil",
        "low"
      ],
      [
        "ĠI",
        "nd"
      ],
      [
        "Ġar",
        "gagax"
      ],
      [
        "iir",
        "adda"
      ],
      [
        "Ġdoon",
        "ayay"
      ],
      [
        "Ġlaga",
        "ga"
      ],
      [
        "Ġnoo",
        "c"
      ],
      [
        "ul",
        "y"
      ],
      [
        "un",
        "tii"
      ],
      [
        "ĠC",
        "ol"
      ],
      [
        "Ġdib",
        "na"
      ],
      [
        "Ġdamb",
        "eeyay"
      ],
      [
        "Ġ1",
        "6"
      ],
      [
        "Ġ1",
        "8"
      ],
      [
        "Ġsha",
        "n"
      ],
      [
        "Ġsha",
        "bakad"
      ],
      [
        "Ġwar",
        "arkii"
      ],
      [
        "Ġwar",
        "eeg"
      ],
      [
        "Ġdar",
        "ay"
      ],
      [
        "Ġdar",
        "tay"
      ],
      [
        "kay",
        "aga"
      ],
      [
        "sad",
        "e"
      ],
      [
        "ĠB",
        "arcelona"
      ],
      [
        "aada",
        "ha"
      ],
      [
        "Ġkuw",
        "o"
      ],
      [
        "Ġkuw",
        "aasi"
      ],
      [
        "Ġqab",
        "a"
      ],
      [
        "Ġqab",
        "o"
      ],
      [
        "Ġqab",
        "q"
      ],
      [
        "Ġ20",
        "00"
      ],
      [
        "haa",
        "jir"
      ],
      [
        "ĠK",
        "en"
      ],
      [
        "ĠK",
        "aniisadda"
      ],
      [
        "ĠK",
        "oonfur"
      ],
      [
        "Ġsid",
        "d"
      ],
      [
        "Ġsid",
        "ee"
      ],
      [
        "Ġsam",
        "eeyo"
      ],
      [
        "ahay",
        "a"
      ],
      [
        "Ġga",
        "c"
      ],
      [
        "Ġga",
        "bad"
      ],
      [
        "Ġna",
        "ga"
      ],
      [
        "Ġna",
        "gu"
      ],
      [
        "Ġna",
        "tiij"
      ],
      [
        "aag",
        "in"
      ],
      [
        "Ġsharc",
        "iga"
      ],
      [
        "Ġsheeg",
        "en"
      ],
      [
        "do",
        "n"
      ],
      [
        "Ġyee",
        "lay"
      ],
      [
        "Ġyee",
        "lato"
      ],
      [
        "Ġdhaq",
        "aale"
      ],
      [
        "Ġxiriir",
        "kaaga"
      ],
      [
        "Ġjoog",
        "to"
      ],
      [
        "ys",
        "ka"
      ],
      [
        "ys",
        "sa"
      ],
      [
        "ĠH",
        "al"
      ],
      [
        "ĠH",
        "ooyad"
      ],
      [
        "ĠH",
        "indiya"
      ],
      [
        "ĠR",
        "obot"
      ],
      [
        "ĠR",
        "onal"
      ],
      [
        "Ġad",
        "iga"
      ],
      [
        "Ġmu",
        "hii"
      ],
      [
        "Ġmu",
        "haajir"
      ],
      [
        "Ġbaa",
        "q"
      ],
      [
        "Ġdhac",
        "a"
      ],
      [
        "ĠL",
        "on"
      ],
      [
        "Ġwii",
        "lk"
      ],
      [
        "Ġam",
        "aba"
      ],
      [
        "Ġkhatar",
        "aha"
      ],
      [
        "Ġlahaa",
        "yeen"
      ],
      [
        "Ġbal",
        "l"
      ],
      [
        "Ġtir",
        "a"
      ],
      [
        "Ġtir",
        "tir"
      ],
      [
        "Ġeed",
        "eeyay"
      ],
      [
        "Ġeed",
        "eeyo"
      ],
      [
        "Ġsharci",
        "gu"
      ],
      [
        "dha",
        "barta"
      ],
      [
        "tan",
        "i"
      ],
      [
        "ĠJ",
        "aamac"
      ],
      [
        "ĠJ",
        "uly"
      ],
      [
        "ĠMin",
        "esota"
      ],
      [
        "00",
        "0"
      ],
      [
        "ah",
        "ooda"
      ],
      [
        "ah",
        "eri"
      ],
      [
        "dh",
        "eer"
      ],
      [
        "on",
        "el"
      ],
      [
        "ĠO",
        "ktoob"
      ],
      [
        "kad",
        "u"
      ],
      [
        "Ġdug",
        "si"
      ],
      [
        "Ġdug",
        "siyada"
      ],
      [
        "Ġab",
        "aal"
      ],
      [
        "Ġaf",
        "ka"
      ],
      [
        "Ġmuuq",
        "aal"
      ],
      [
        "Ġmeel",
        "ood"
      ],
      [
        "Ġwaxy",
        "eel"
      ],
      [
        "Ġdaw",
        "eeyay"
      ],
      [
        "sig",
        "iisa"
      ],
      [
        "Ġilaal",
        "inayo"
      ],
      [
        "Ġbarnaamij",
        "yada"
      ],
      [
        "Ġbilaab",
        "o"
      ],
      [
        "Ġtarxii",
        "lka"
      ],
      [
        "Ġtarxii",
        "lo"
      ],
      [
        "Ġwal",
        "aal"
      ],
      [
        "Ġmax",
        "al"
      ],
      [
        "Ġmax",
        "kam"
      ],
      [
        "Ġmada",
        "d"
      ],
      [
        "Ġahaa",
        "tee"
      ],
      [
        "Ġadeeg",
        "sado"
      ],
      [
        "Ġadeeg",
        "saday"
      ],
      [
        "Ġtallaab",
        "o"
      ],
      [
        "Ġtallaab",
        "ooyin"
      ],
      [
        "ĠF",
        "eder"
      ],
      [
        "ĠF",
        "aran"
      ],
      [
        "Ġwad",
        "aagay"
      ],
      [
        "Ġmaad",
        "aama"
      ],
      [
        "Ġbax",
        "ay"
      ],
      [
        "Ġbax",
        "sado"
      ],
      [
        "Ġahaan",
        "ba"
      ],
      [
        "Ġkul",
        "m"
      ],
      [
        "Ġkul",
        "ul"
      ],
      [
        "Ġtaas",
        "oo"
      ],
      [
        "Ġxad",
        "ka"
      ],
      [
        "Ġxill",
        "i"
      ],
      [
        "Ġxill",
        "ig"
      ],
      [
        "Ġlaab",
        "tay"
      ],
      [
        "Ġhal",
        "ista"
      ],
      [
        "Ġdhig",
        "aan"
      ],
      [
        "Ġarag",
        "no"
      ],
      [
        "Ġmaalin",
        "tii"
      ],
      [
        "Ġsabab",
        "ta"
      ],
      [
        "Hadda",
        "ba"
      ],
      [
        "bad",
        "ay"
      ],
      [
        "Ġarr",
        "imo"
      ],
      [
        "Ġarr",
        "intan"
      ],
      [
        "int",
        "aan"
      ],
      [
        "Ġtaag",
        "eer"
      ],
      [
        "Ġeeg",
        "to"
      ],
      [
        "Ġeeg",
        "no"
      ],
      [
        "Ġcod",
        "sigiisa"
      ],
      [
        "Ġhel",
        "in"
      ],
      [
        "Ġfur",
        "sado"
      ],
      [
        "Ġgar",
        "an"
      ],
      [
        "ĠAl",
        "yssa"
      ],
      [
        "Ġqoys",
        "kayaga"
      ],
      [
        "Ġnoola",
        "sha"
      ],
      [
        "Ġ201",
        "7"
      ],
      [
        "Ġdaaw",
        "an"
      ],
      [
        "Ġdaaw",
        "ada"
      ],
      [
        "Ġdaaweyn",
        "ta"
      ],
      [
        "Ġdaaweyn",
        "tu"
      ],
      [
        "Ġeedey",
        "een"
      ],
      [
        "Ġfarii",
        "mo"
      ],
      [
        "Ġfarii",
        "maha"
      ],
      [
        "Ġbukaan",
        "ada"
      ],
      [
        "Ġcaafimaad",
        "ka"
      ],
      [
        "Sh",
        "eekh"
      ],
      [
        "Sh",
        "arciga"
      ],
      [
        "To",
        "k"
      ],
      [
        "dii",
        "yay"
      ],
      [
        "gel",
        "yo"
      ],
      [
        "ĠP",
        "aul"
      ],
      [
        "darr",
        "o"
      ],
      [
        "darr",
        "ada"
      ],
      [
        "Ġsaf",
        "arkii"
      ],
      [
        "Ġlac",
        "ag"
      ],
      [
        "Ġlac",
        "aga"
      ],
      [
        "Ġbix",
        "iyay"
      ],
      [
        "Ġtax",
        "an"
      ],
      [
        "Ġtax",
        "aabay"
      ],
      [
        "Ġtilmaam",
        "ay"
      ],
      [
        "Ġyaab",
        "i"
      ],
      [
        "Ġyimaad",
        "een"
      ],
      [
        "Ġyaqaan",
        "no"
      ],
      [
        "Ġdhaw",
        "aad"
      ],
      [
        "Ġraj",
        "o"
      ],
      [
        "Ġhortag",
        "o"
      ],
      [
        "ĠTik",
        "Tok"
      ],
      [
        "Ġqaban",
        "ayo"
      ],
      [
        "Ġxaru",
        "mo"
      ],
      [
        "Ġxaru",
        "maha"
      ],
      [
        "Ġalbaab",
        "ada"
      ],
      [
        "Ġalbaab",
        "bada"
      ],
      [
        "Ġdifaac",
        "a"
      ],
      [
        "In",
        "aad"
      ],
      [
        "Isa",
        "ga"
      ],
      [
        "Mus",
        "taqbal"
      ],
      [
        "Soomaal",
        "ida"
      ],
      [
        "av",
        "aheri"
      ],
      [
        "tig",
        "aas"
      ],
      [
        "Ġo",
        "f"
      ],
      [
        "Ġaada",
        "naha"
      ],
      [
        "Ġwa",
        "kh"
      ],
      [
        "Ġwey",
        "diiyay"
      ],
      [
        "Ġdoo",
        "na"
      ],
      [
        "Ġdow",
        "lad"
      ],
      [
        "Ġdiyaar",
        "ad"
      ],
      [
        "Ġmee",
        "laha"
      ],
      [
        "Ġlahay",
        "d"
      ],
      [
        "Ġinka",
        "sta"
      ],
      [
        "Ġtoos",
        "ka"
      ],
      [
        "Ġxeer",
        "ar"
      ],
      [
        "Ġxuquuq",
        "da"
      ],
      [
        "Ġqay",
        "b"
      ],
      [
        "Ġluuq",
        "adda"
      ],
      [
        "Ġdhib",
        "aato"
      ],
      [
        "Ġdheer",
        "aad"
      ],
      [
        "Ġdhigay",
        "sa"
      ],
      [
        "Ġfadh",
        "iya"
      ],
      [
        "Ġrog",
        "rog"
      ],
      [
        "Ġtalo",
        "galay"
      ],
      [
        "Ġilma",
        "hayaga"
      ],
      [
        "Ġdarr",
        "o"
      ],
      [
        "Ġgacan",
        "ta"
      ],
      [
        "Ġnaf",
        "tiisa"
      ],
      [
        "Ġnolo",
        "sh"
      ],
      [
        "dhaq",
        "aaq"
      ],
      [
        "Ġciidam",
        "ada"
      ],
      [
        "Ġtaleefan",
        "kaaga"
      ],
      [
        "GO",
        "AT"
      ],
      [
        "Li",
        "onel"
      ],
      [
        "Socd",
        "aalku"
      ],
      [
        "lim",
        "iinta"
      ],
      [
        "noolaj",
        "iyadda"
      ],
      [
        "raan",
        "tii"
      ],
      [
        "uka",
        "emia"
      ],
      [
        "Ġsaab",
        "san"
      ],
      [
        "Ġwan",
        "aag"
      ],
      [
        "Ġwaq",
        "tigaas"
      ],
      [
        "Ġwix",
        "ii"
      ],
      [
        "Ġwaj",
        "ahaya"
      ],
      [
        "Ġwayd",
        "iin"
      ],
      [
        "Ġdir",
        "ay"
      ],
      [
        "Ġdemb",
        "i"
      ],
      [
        "Ġmur",
        "ugo"
      ],
      [
        "Ġkadd",
        "ib"
      ],
      [
        "Ġkals",
        "oon"
      ],
      [
        "Ġbad",
        "baad"
      ],
      [
        "Ġbood",
        "ay"
      ],
      [
        "Ġahey",
        "d"
      ],
      [
        "Ġugaadh",
        "sade"
      ],
      [
        "Ġtuur",
        "ay"
      ],
      [
        "Ġqala",
        "b"
      ],
      [
        "Ġdabee",
        "c"
      ],
      [
        "Ġcaab",
        "uq"
      ],
      [
        "Ġcaasi",
        "madda"
      ],
      [
        "Ġcun",
        "aan"
      ],
      [
        "Ġcud",
        "urka"
      ],
      [
        "ĠMiam",
        "i"
      ],
      [
        "Ġleeda",
        "hay"
      ],
      [
        "Ġdhalee",
        "ceyn"
      ],
      [
        "Ġdhiirrig",
        "eliyay"
      ],
      [
        "Ġisdil",
        "o"
      ],
      [
        "Ġiskuu",
        "lka"
      ],
      [
        "Ġismiid",
        "aamin"
      ],
      [
        "Ġtahr",
        "iibo"
      ],
      [
        "Ġtakha",
        "sus"
      ],
      [
        "Ġsannad",
        "o"
      ],
      [
        "ĠDonal",
        "d"
      ],
      [
        "ĠInd",
        "ia"
      ],
      [
        "ĠCol",
        "lege"
      ],
      [
        "ĠKen",
        "ya"
      ],
      [
        "Ġgabad",
        "h"
      ],
      [
        "ĠHooyad",
        "iis"
      ],
      [
        "ĠRonal",
        "do"
      ],
      [
        "Ġmuhaajir",
        "iinta"
      ],
      [
        "ĠLon",
        "don"
      ],
      [
        "Ġtirtir",
        "o"
      ],
      [
        "ĠOktoob",
        "ar"
      ],
      [
        "ĠFeder",
        "aalka"
      ],
      [
        "ĠFaran",
        "siiska"
      ]
    ]
  }
}